<unk>	0
<s>	0
</s>	0
.	-3.12282
,	-3.3653
▁нь	-4.48449
▁	-4.49315
-	-4.6379
ийн	-4.83083
ын	-4.86689
)	-4.9321
▁(	-5.04795
:	-5.07975
д	-5.18183
н	-5.26031
▁оны	-5.47667
▁онд	-5.55892
р	-5.56096
▁"	-5.59048
ыг	-5.65307
▁байна	-5.72861
ийг	-5.74917
▁юм	-5.76551
▁сарын	-5.76937
г	-5.79067
▁-	-5.82905
▁байсан	-5.88357
▁1	-5.98223
т	-5.99858
▁болон	-6.00224
▁2	-6.05094
▁улсын	-6.06793
▁3	-6.15868
▁ба	-6.18701
▁Монгол	-6.2061
▁улс	-6.21452
"	-6.2325
▁бөгөөд	-6.25346
нд	-6.25603
▁авсан	-6.27011
▁4	-6.30918
▁гэж	-6.32012
▁•	-6.32801
s	-6.33485
ээ	-6.38723
ны	-6.41704
▁Энэ	-6.42014
гийн	-6.42179
▁ч	-6.46601
тай	-6.47125
▁хүн	-6.50181
▁5	-6.50699
х	-6.53359
▁|	-6.55143
с	-6.55267
▁олон	-6.56284
аас	-6.58343
▁нэг	-6.58478
▁энэ	-6.60111
▁–	-6.6149
аар	-6.61734
▁—	-6.61907
▁байдаг	-6.62899
▁болсон	-6.63355
▁газар	-6.63844
▁“	-6.67745
▁их	-6.69051
▁байв	-6.72035
▁үед	-6.72518
а	-6.73034
▁сар	-6.73529
▁бол	-6.75341
▁6	-6.76547
▁of	-6.76911
▁Х	-6.77716
▁«	-6.7829
▁хаан	-6.78448
▁·	-6.80247
”	-6.82573
▁7	-6.8405
»	-6.85975
2	-6.868
▁8	-6.88755
▁хоёр	-6.90322
▁буюу	-6.90355
▁он	-6.9126
гүй	-6.91331
▁зэрэг	-6.92332
▁аймгийн	-6.93356
▁тус	-6.9377
▁дахь	-6.96411
ы	-6.97347
▁байгаа	-6.97448
▁9	-6.9874
ад	-6.99019
/	-6.99119
▁10	-6.99815
▁Улсын	-7.00895
▁the	-7.00921
▁хот	-7.01216
▁гэсэн	-7.01543
▁Их	-7.03343
тэй	-7.03418
▁дараа	-7.0358
▁нутаг	-7.03764
▁Монголын	-7.03767
▁У	-7.03901
ээр	-7.0516
▁тухай	-7.05169
▁хамгийн	-7.06234
▁нэр	-7.10926
▁сум	-7.12201
▁дээр	-7.1262
▁болох	-7.14641
▁болж	-7.16937
▁А	-7.17005
аа	-7.17098
▁О	-7.17922
▁км	-7.19445
▁хандсан	-7.19586
▁гэдэг	-7.2013
▁гол	-7.20327
),	-7.21857
▁Н	-7.23199
▁0	-7.2447
▁Улс	-7.25226
ний	-7.25554
▁11	-7.27356
▁цэргийн	-7.27752
▁орон	-7.28363
▁болно	-7.28524
ий	-7.29441
▁12	-7.2959
ж	-7.29662
▁байжээ	-7.29922
▁and	-7.30339
▁гэх	-7.3076
▁төрийн	-7.31212
ээс	-7.31345
▁жилийн	-7.31816
▁мөн	-7.32964
▁жил	-7.36305
▁Мөн	-7.3666
▁түүний	-7.37036
'	-7.38637
▁анхны	-7.40207
▁л	-7.40665
▁үйл	-7.40748
▁хүртэл	-7.40955
▁засгийн	-7.41228
▁нар	-7.41731
;	-7.41795
▁байх	-7.43295
▁Д	-7.44403
▁холбоос	-7.44529
▁оноос	-7.44727
▁бий	-7.45015
▁албан	-7.45029
▁хааны	-7.4512
в	-7.46097
▁сая	-7.46175
з	-7.47473
▁өдөр	-7.47805
▁зураг	-7.47826
▁үе	-7.47912
▁төв	-7.47974
▁2010	-7.48507
▁том	-7.49307
и	-7.49366
ч	-7.50329
эд	-7.51052
▁газрын	-7.51235
▁Гарчиг	-7.52109
▁ам	-7.53489
▁үеийн	-7.53595
▁хэл	-7.5418
▁нас	-7.55493
▁авч	-7.55595
▁The	-7.56153
▁15	-7.56872
▁бусад	-7.57265
▁хэмээн	-7.5801
▁баруун	-7.58152
▁эрх	-7.58289
о	-7.58424
▁монгол	-7.58505
▁хэсэг	-7.59974
ууд	-7.60014
▁цэрэг	-7.60276
▁АНУ	-7.60532
▁болжээ	-7.60577
▁эх	-7.60871
▁2011	-7.61201
▁Б	-7.61703
▁өөрийн	-7.62243
▁Хятад	-7.62633
▁сан	-7.62862
▁С	-7.64802
жээ	-7.6488
▁сард	-7.65073
▁засаг	-7.65618
▁дэлхийн	-7.65886
л	-7.66427
▁тэр	-7.66895
▁байлаа	-7.67033
▁16	-7.683
▁баг	-7.6831
▁удаа	-7.68332
▁буй	-7.6846
▁анх	-7.68986
▁зүүн	-7.69024
▁in	-7.69044
▁хотын	-7.69073
▁өөр	-7.69491
▁аж	-7.69669
▁13	-7.69864
▁нэгэн	-7.704
▁хойш	-7.70474
▁боловч	-7.70499
▁өндөр	-7.70649
(	-7.70953
▁дайн	-7.7137
▁20	-7.71804
▁A	-7.72223
м	-7.72438
▁2014	-7.7255
▁м	-7.72773
▁төрсөн	-7.72886
▁дугаар	-7.73172
▁хотод	-7.73227
▁бүх	-7.73736
▁бүхий	-7.74079
▁шинэ	-7.7444
▁Оросын	-7.7483
▁хийж	-7.75166
▁эдийн	-7.75821
▁Викимедиа	-7.75929
▁Өмнөд	-7.7601
▁14	-7.76053
▁тоо	-7.76411
▁Дэлхийн	-7.77108
▁өмнө	-7.77817
▁Хүн	-7.77868
1	-7.77999
▁эсрэг	-7.78233
▁хувьд	-7.78412
▁зууны	-7.78561
▁Эшлэл	-7.78693
▁аварга	-7.79755
▁2012	-7.80587
▁Орос	-7.81027
▁нийт	-7.81406
▁хувь	-7.82173
▁17	-7.82176
▁бага	-7.83148
▁нутгийн	-7.83592
▁зохион	-7.83673
ь	-7.844
▁тул	-7.85633
▁ёсны	-7.85689
▁Төв	-7.86054
▁хан	-7.86371
▁билээ	-7.86745
▁дээд	-7.87993
▁дуу	-7.88283
▁руу	-7.886
▁ирсэн	-7.88666
▁/	-7.88701
3	-7.88947
▁үр	-7.89255
сан	-7.89266
",	-7.89659
▁хүү	-7.89675
▁муж	-7.89777
хүү	-7.90009
▁хэмээх	-7.90145
▁гурван	-7.90151
n	-7.90346
▁улсад	-7.90394
▁18	-7.90636
▁дунд	-7.90752
▁сайд	-7.90832
▁байр	-7.90881
даа	-7.90977
▁Америкийн	-7.91497
▁гаруй	-7.91621
▁зарим	-7.92096
▁ард	-7.92321
▁мэт	-7.92727
▁Commons	-7.92904
▁өгүүлэл	-7.93227
▁эсвэл	-7.93377
▁хуудас	-7.93888
▁аймаг	-7.93927
▁багийн	-7.94151
▁байдлаар	-7.94163
▁маш	-7.94333
▁талаар	-7.94511
▁хийсэн	-7.94731
▁дарга	-7.94746
▁Цахим	-7.94799
▁цол	-7.95263
ан	-7.95713
той	-7.96023
▁19	-7.9705
▁30	-7.97169
▁дууны	-7.97357
▁2008	-7.9786
▁хооронд	-7.98851
▁бүс	-7.98859
▁Хятадын	-7.98911
▁гадна	-7.9894
▁22	-7.99026
▁2013	-7.99197
▁тал	-7.9978
▁21	-7.99857
▁дахин	-7.99988
com	-8.00342
▁хойд	-8.00394
C	-8.01078
▁амын	-8.01105
▁байгуулсан	-8.01114
▁гарсан	-8.01225
▁З	-8.01274
▁дэх	-8.01577
▁эхэлсэн	-8.01772
ц	-8.01814
e	-8.02121
▁цаг	-8.02133
▁хүний	-8.02852
▁S	-8.02923
▁хэдэн	-8.03106
▁түүнийг	-8.03757
▁нутагт	-8.04068
▁on	-8.0422
▁2009	-8.04978
е	-8.05111
▁уран	-8.05158
▁бичлэг	-8.05975
▁Харин	-8.06299
▁гишүүн	-8.06689
d	-8.07479
й	-8.07493
▁үндсэн	-8.0759
▁хамт	-8.07626
▁Солонгос	-8.08005
▁бие	-8.08317
▁нарын	-8.0832
▁сумын	-8.08583
▁бүрэн	-8.08757
▁бөмбөг	-8.08901
▁ЗХУ	-8.09203
▁шигшээ	-8.11063
▁25	-8.11592
оор	-8.11738
▁сайн	-8.11787
▁М	-8.11862
▁гарч	-8.11969
▁Г	-8.12286
▁тоглолт	-8.12342
▁хийх	-8.12583
▁Т	-8.1276
▁бүр	-8.13062
▁бичиг	-8.13086
▁ажиллаж	-8.13247
▁ван	-8.13348
▁24	-8.13636
▁оршин	-8.13748
▁23	-8.14022
▁байдал	-8.14533
ing	-8.1477
▁орж	-8.14832
▁Газар	-8.14842
▁2006	-8.15961
▁ямар	-8.16118
▁үг	-8.16459
▁C	-8.16504
▁өмнөд	-8.16694
▁орны	-8.16764
▁зүйл	-8.16917
▁илүү	-8.16964
▁захиргааны	-8.17383
▁зам	-8.17697
▁эзэн	-8.17856
▁арга	-8.18046
x	-8.18065
▁тусгаар	-8.18211
▁Үндсэн	-8.1857
v	-8.1878
▁арван	-8.19483
▁ерөнхий	-8.19634
▁Бүгд	-8.19701
y	-8.19975
▁Япон	-8.20463
▁Тэр	-8.20802
▁хүч	-8.20943
▁Тэрээр	-8.21065
▁ISBN	-8.21075
▁Түүний	-8.21251
▁улсыг	-8.21923
▁орчим	-8.21961
4	-8.22219
▁хуудсанд	-8.22367
оос	-8.22584
ш	-8.22603
t	-8.22645
▁Ц	-8.22662
▁Гадаад	-8.22802
▁1-	-8.22973
▁дайны	-8.23031
a	-8.23079
▁Герман	-8.23499
▁Европын	-8.24035
▁Германы	-8.24178
▁төр	-8.24352
▁2007	-8.24456
▁хошуу	-8.24731
▁сургууль	-8.24744
▁кино	-8.24794
▁мэдээлэл	-8.24814
▁хүмүүс	-8.2487
оо	-8.25301
▁мянган	-8.25322
▁to	-8.25325
▁уг	-8.25534
аад	-8.2567
▁дотор	-8.26005
▁28	-8.26304
▁B	-8.26373
▁чухал	-8.26464
дээ	-8.26485
▁авах	-8.2678
▁үндэстэн	-8.26888
б	-8.26906
▁зүй	-8.27352
▁I	-8.27606
▁хатан	-8.27878
▁урт	-8.2808
▁29	-8.2843
▁Японы	-8.28631
▁хүнд	-8.28828
▁мужийн	-8.29022
▁хэсэгт	-8.29197
▁кг	-8.29281
ид	-8.29395
▁түүх	-8.29501
▁болгон	-8.29661
▁Ерөнхий	-8.29705
▁хууль	-8.30055
▁нийслэл	-8.30472
▁бас	-8.30557
▁учир	-8.30991
▁бус	-8.31198
▁санал	-8.31264
5	-8.31324
▁болов	-8.31629
▁26	-8.31896
▁хүртсэн	-8.3198
▁үсэг	-8.32118
у	-8.32171
▁баяр	-8.32265
▁цагаан	-8.32331
▁байж	-8.33072
▁уул	-8.33123
▁хоёрдугаар	-8.33389
▁хөлбөмбөг	-8.34073
o	-8.34363
▁нам	-8.34458
▁хаант	-8.3461
▁И	-8.34677
▁уу	-8.34902
англ	-8.35066
▁түмэн	-8.35203
▁Аймгийн	-8.35593
▁сурвалж	-8.35781
▁Олон	-8.3593
▁2-	-8.36
▁байгуулагдсан	-8.36106
▁бөх	-8.36255
ав	-8.36278
▁төрлийн	-8.36345
▁хүлээн	-8.3697
хан	-8.3699
▁голын	-8.3715
▁27	-8.37228
▁гаргасан	-8.37242
▁a	-8.37316
er	-8.37346
6	-8.37374
▁шилдэг	-8.37391
▁тулд	-8.37484
▁2015	-8.37797
▁Алтан	-8.37997
▁хэмжээ	-8.38192
▁явдал	-8.38395
▁Түүх	-8.38418
▁1.1	-8.38486
▁Шинэ	-8.38623
▁оноо	-8.38669
▁дагуу	-8.38684
▁орсон	-8.38871
к	-8.39267
▁үндэсний	-8.39466
▁үздэг	-8.39517
я	-8.39519
▁дамжуулалт	-8.3968
▁2000	-8.39901
▁биш	-8.40017
▁наадамд	-8.40775
▁Чингис	-8.4102
?	-8.41231
ed	-8.41358
▁Баруун	-8.41424
▁дөрвөн	-8.41472
–	-8.41553
▁өргөн	-8.4305
▁for	-8.4306
▁авалт	-8.43409
од	-8.43429
▁эзэнт	-8.43525
▁Найрамдах	-8.43684
▁төлөө	-8.43808
▁Юань	-8.44589
▁ажиллагаа	-8.44613
S	-8.44687
▁нэгдүгээр	-8.45007
▁Эх	-8.45103
r	-8.45434
▁хэлний	-8.45455
▁Засгий	-8.4556
▁талаараа	-8.46287
▁хүчин	-8.46448
al	-8.46463
▁3-	-8.46497
▁томоохон	-8.46744
▁зүйн	-8.46807
▁багт	-8.4693
▁гэр	-8.47122
▁ёсоор	-8.47279
зөвхөн	-8.47538
▁ажил	-8.47717
i	-8.47836
▁Увс	-8.47899
▁2016	-8.47943
▁Зүүн	-8.48042
▁Тус	-8.48226
▁тодорхой	-8.48275
үүд	-8.48328
▁хар	-8.48472
▁2005	-8.48579
▁Гэвч	-8.48997
▁зах	-8.49084
▁2004	-8.491
▁Улаанбаатар	-8.49372
▁Ази	-8.4973
▁Франц	-8.49891
▁Английн	-8.4994
▁Ж	-8.50309
▁соёл	-8.50383
▁Үндэсний	-8.50397
▁В	-8.50593
▁далайн	-8.51044
эгдсэн	-8.51161
8	-8.51503
▁Оноо	-8.51745
▁хэд	-8.52185
▁Богд	-8.52199
▁100	-8.52451
▁G	-8.52485
9	-8.52674
▁орос	-8.52839
▁холбоо	-8.5299
▁төрөл	-8.53465
▁F	-8.53701
на	-8.53807
▁Опел	-8.54066
▁10-	-8.54312
▁Ардын	-8.54438
▁ДАШТ	-8.54452
A	-8.54686
▁аль	-8.54894
▁Мин	-8.55003
▁үзэх	-8.55107
▁Францын	-8.5533
▁D	-8.55362
▁2.1	-8.55562
▁хэрэг	-8.55671
▁зуун	-8.55722
▁Ш	-8.55762
▁Өвөр	-8.558
▁хятад	-8.55808
▁World	-8.55967
С	-8.5628
0	-8.56402
▁Шигшээ	-8.56454
▁арслан	-8.56454
▁Булган	-8.56624
▁Та	-8.56702
▁амжилт	-8.56763
▁хөлбөмбөгчин	-8.57146
▁үүрэг	-8.57215
▁лигийн	-8.57259
▁31	-8.57402
он	-8.57777
▁нуур	-8.57967
▁орших	-8.58066
▁болдог	-8.5807
▁Хар	-8.58173
▁E	-8.58182
▁өгсөн	-8.58342
▁шууд	-8.59163
▁оршдог	-8.59258
▁К	-8.59352
▁5-	-8.5983
▁Хойд	-8.59841
▁Америк	-8.59891
▁хамгаалах	-8.601
▁8-	-8.60107
▁тэрээр	-8.60108
▁хүчний	-8.60165
▁дундаж	-8.60395
▁Төрийн	-8.60434
▁эртний	-8.60485
▁жижиг	-8.60607
▁хугацаанд	-8.60708
▁4-	-8.60746
▁шашин	-8.6083
▁M	-8.61545
▁ерөнхийлөгч	-8.6157
▁эхний	-8.6162
]	-8.61647
▁шинж	-8.61711
▁гэрээ	-8.61977
▁ирж	-8.62154
▁хэмжээний	-8.62408
▁настай	-8.63108
▁K	-8.63137
▁хэлээр	-8.63398
▁гаргаж	-8.63495
▁одоогийн	-8.63505
es	-8.63529
▁наадмын	-8.63736
▁[	-8.6381
▁Холбооны	-8.63922
▁давж	-8.64034
▁гүрний	-8.64102
▁уулын	-8.64247
▁тайлбар	-8.64319
▁таван	-8.64408
Х	-8.64474
Самбар	-8.64776
▁бүгд	-8.64829
А	-8.6499
▁P	-8.6501
▁гадаад	-8.65386
▁барсан	-8.65484
▁Солонгосын	-8.6576
▁T	-8.65809
▁H	-8.65992
▁байгуулж	-8.66017
▁1990	-8.66086
Ашиг	-8.66176
▁тэдний	-8.66189
▁хагас	-8.66229
▁холбоотой	-8.66331
сон	-8.66352
▁нэртэй	-8.66389
m	-8.6681
▁эхлэн	-8.66955
▁дор	-8.66992
▁6-	-8.67067
▁жүжигчин	-8.67101
э	-8.67308
▁үеэр	-8.67411
▁Ховд	-8.67498
▁ус	-8.67818
▁гаралтай	-8.6788
наас	-8.67943
▁Цагаан	-8.67991
▁боломжтой	-8.67992
▁7-	-8.68036
лан	-8.68042
▁дэд	-8.68548
▁Он	-8.68561
▁ёстой	-8.68565
▁Азийн	-8.68743
даг	-8.68833
▁зуунд	-8.68922
▁П	-8.68981
▁12-	-8.69007
▁хамтран	-8.69023
▁заан	-8.69152
▁V	-8.69432
▁шашны	-8.69487
▁цомын	-8.6962
уудын	-8.69821
▁мм	-8.69833
▁ажээ	-8.70128
▁Архангай	-8.70209
Монгол	-8.70243
▁талд	-8.70494
▁үзэл	-8.70583
▁II	-8.70605
▁үеэс	-8.70648
▁ихэнх	-8.70675
▁систем	-8.70681
▁цомог	-8.70783
▁Л	-8.70887
▁одоо	-8.71339
▁Баян	-8.71478
▁оронд	-8.71632
▁тэргүүн	-8.71638
▁бүтээл	-8.71638
▁Умард	-8.71639
▁хороо	-8.71836
▁Чин	-8.71973
▁ухааны	-8.72036
▁адил	-8.72209
▁рүү	-8.72307
▁ОХУ	-8.72308
▁Засаг	-8.72424
▁харин	-8.72449
▁БНМАУ	-8.7261
▁өмнөх	-8.72773
—	-8.7279
ар	-8.72791
▁Өвөрхангай	-8.73253
▁Амжилт	-8.73287
▁ном	-8.7336
▁хил	-8.73413
▁R	-8.73444
▁начин	-8.73629
▁50	-8.7365
▁11-	-8.73763
▁тусгай	-8.74011
7	-8.74342
чин	-8.74355
B	-8.74362
▁гүн	-8.74581
▁оролцож	-8.7469
▁нэгж	-8.74749
▁харилцаа	-8.74842
▁40	-8.7487
▁1.2	-8.74905
▁Лавлах	-8.75132
▁шагнал	-8.7518
▁байгууллага	-8.75249
▁ухаан	-8.75448
▁гар	-8.75554
хаа	-8.75621
▁хэрэгтэй	-8.75657
▁шинжлэх	-8.75789
▁цахилгаан	-8.75807
▁тэд	-8.75951
▁цахим	-8.75981
▁холбооны	-8.76026
ин	-8.76275
▁нийгмийн	-8.76283
эн	-8.76508
▁оролцсон	-8.76998
▁оруулсан	-8.77063
▁дэвсгэр	-8.77079
▁нарийн	-8.77205
▁энэхүү	-8.77235
▁Э	-8.7751
▁түүхэн	-8.77602
▁2002	-8.77739
▁орчин	-8.77823
▁бичгийн	-8.77825
▁хөгжмийн	-8.77949
▁газарт	-8.78062
▁1992	-8.78098
▁9-	-8.78186
▁July	-8.78279
▁p	-8.78407
уудыг	-8.78609
▁бүрийн	-8.78836
de	-8.78857
▁Одоогийн	-8.7905
К	-8.79055
▁улаан	-8.79121
▁хүнтэй	-8.79444
▁June	-8.79452
en	-8.79462
▁байгаад	-8.7949
▁дүрс	-8.79513
O	-8.79584
▁хотыг	-8.79837
ов	-8.79909
▁толгой	-8.80066
▁Монголд	-8.8012
▁Нэр	-8.80494
▁2010-	-8.80876
▁Нийт	-8.80951
▁ач	-8.81141
▁Зөвлөлт	-8.81141
▁бичсэн	-8.81183
өө	-8.81354
▁Манж	-8.81632
▁de	-8.8168
Д	-8.81693
▁Дөрвөн	-8.8187
▁Үүний	-8.81875
▁Дорнод	-8.81997
▁салбар	-8.82237
▁ялалт	-8.82398
▁онгоц	-8.82438
гаар	-8.82615
▁арми	-8.82641
▁Турк	-8.82812
▁тоглогч	-8.8287
▁лам	-8.83027
йн	-8.83042
▁эзлэн	-8.83181
▁талын	-8.83317
▁баримт	-8.83424
▁хүчтэй	-8.83546
▁Бат	-8.83691
▁баатар	-8.83767
▁болгож	-8.83824
▁August	-8.84109
▁барьж	-8.84144
▁улмаар	-8.84258
▁болгосон	-8.84313
эмж	-8.84385
▁тоглолтонд	-8.84511
▁Халхын	-8.84521
▁суурин	-8.84528
M	-8.84579
E	-8.84816
▁мөрний	-8.84844
c	-8.84872
▁дараах	-8.8488
ли	-8.84881
▁боломж	-8.84922
▁Канад	-8.84975
▁манж	-8.85151
▁Зөвлөлтийн	-8.85384
сэн	-8.85419
▁Уг	-8.85533
▁гэхэд	-8.85651
▁бодлого	-8.85731
▁дээрх	-8.85743
▁НҮБ	-8.85806
▁төмөр	-8.85866
▁Англи	-8.8599
▁Эд	-8.85996
▁Ар	-8.86143
▁цом	-8.86679
▁Британийн	-8.86703
▁замын	-8.86833
ал	-8.87144
▁үлдсэн	-8.87257
▁учраас	-8.87284
▁богино	-8.87359
өөр	-8.87447
▁бүрт	-8.87459
Б	-8.87506
▁и	-8.87531
▁2003	-8.87582
▁нэрийг	-8.87678
Төрсөн	-8.8775
км	-8.88093
▁дүгээр	-8.88248
▁монголын	-8.88329
▁түүхэнд	-8.88441
▁гэнэ	-8.88597
▁жанжин	-8.88648
ай	-8.88733
▁дүү	-8.88806
▁байгуулах	-8.88914
▁хилийн	-8.8897
▁Британи	-8.89025
▁Эдгээр	-8.89145
▁Тайлан	-8.89387
ас	-8.89784
▁Улаан	-8.8989
▁Хөвсгөл	-8.8997
▁х	-8.90108
▁д	-8.90117
▁гоол	-8.90227
▁2001	-8.90271
▁амжилттай	-8.90275
▁Ч	-8.90312
▁Нью	-8.90346
▁тооны	-8.90467
▁Гэхдээ	-8.90473
▁урд	-8.90631
▁Европ	-8.90659
▁ноён	-8.90801
▁үл	-8.91042
D	-8.91089
▁улмаас	-8.9109
▁компани	-8.9109
▁Профайл	-8.91147
ши	-8.91498
▁БНХАУ	-8.91511
▁медаль	-8.91529
▁дутуу	-8.91551
▁өөртөө	-8.91751
▁цэргүүд	-8.9186
▁1991	-8.92022
▁N	-8.92114
▁гарын	-8.92204
▁Ү	-8.92286
▁хуваарь	-8.92433
▁Говь	-8.92506
us	-8.92836
▁бүрэлдэхүүн	-8.92855
▁өөрөө	-8.9294
▁овог	-8.93022
▁хүрээнд	-8.93268
▁2017	-8.93347
▁багш	-8.93472
▁дайнд	-8.93695
N	-8.93823
▁Албан	-8.93945
▁&	-8.93962
▁өгөхийг	-8.94044
▁J	-8.94058
▁Энэтхэг	-8.94215
b	-8.94288
▁нутгийг	-8.94315
▁Бразил	-8.94616
▁нөлөө	-8.94621
М	-8.94677
▁нэгдсэн	-8.94721
▁бослого	-8.94723
▁дээш	-8.94732
▁үзэж	-8.95018
▁ихээхэн	-8.95022
▁манай	-8.95061
▁Үүнээс	-8.95106
▁бөхийн	-8.95118
▁дэлхий	-8.9514
▁мал	-8.95161
▁Сан	-8.95213
▁эд	-8.95267
▁талбай	-8.95401
▁2.2	-8.95407
▁ардын	-8.95407
▁хугацаа	-8.95426
▁асуудал	-8.95654
▁ганц	-8.9573
▁Бага	-8.9575
▁мэргэжлийн	-8.9575
▁Ма	-8.95886
▁байдлыг	-8.95919
▁уур	-8.95965
▁сүүлийн	-8.96122
▁нөхцөл	-8.96128
▁=	-8.96175
▁Ерөнхийлөгч	-8.96221
▁гээд	-8.96269
▁бүлэг	-8.96508
▁нисэх	-8.96591
▁нэрлэдэг	-8.96595
▁Тэд	-8.96766
▁тэнгис	-8.96937
▁амьдарч	-8.97083
▁усны	-8.97088
▁хувийн	-8.9714
▁хөрөнгө	-8.97293
▁Жишээлбэл	-8.9733
▁der	-8.97519
▁г	-8.97626
▁дотоод	-8.97684
▁тоглодог	-8.97746
▁Нутгийн	-8.97758
ка	-8.97792
Г	-8.97819
▁эмэгтэй	-8.97887
▁гүрэн	-8.98006
▁монголчууд	-8.98035
Н	-8.98072
▁алга	-8.9815
▁Монголчууд	-8.98286
▁хязгаар	-8.98315
▁зохиолч	-8.98318
▁шийдвэр	-8.98457
H	-8.98462
▁дүнд	-8.98611
▁тэрбум	-8.98727
▁үгийг	-8.98779
▁үйлдвэр	-8.98842
▁алба	-8.98959
°	-8.99
▁by	-8.99111
▁сууж	-8.99197
▁нуруу	-8.99373
▁ажиллах	-8.99481
чууд	-8.99551
▁армийн	-8.99825
▁соёлын	-8.99988
▁Нэг	-9.00125
▁би	-9.00229
▁шар	-9.00258
▁загвар	-9.00277
▁тойрог	-9.00366
▁бичигджээ	-9.00622
▁Ард	-9.00666
У	-9.0073
▁залуу	-9.0081
ер	-9.00824
▁Ф	-9.01037
▁шиг	-9.01052
▁ах	-9.01129
▁сүм	-9.01213
▁L	-9.01231
in	-9.01332
▁3.1	-9.01349
▁иргэн	-9.01372
▁тав	-9.01639
▁эцэг	-9.01659
▁хэлбэр	-9.01694
▁хэсгийг	-9.02013
п	-9.02029
▁сургуулийн	-9.02042
▁ургамал	-9.02047
▁метр	-9.0214
▁Завхан	-9.02274
▁орох	-9.02328
▁утга	-9.02333
▁цэргийг	-9.02334
T	-9.02388
▁дүн	-9.02539
▁нарыг	-9.02542
▁Италийн	-9.02543
▁Цаг	-9.02602
▁тогтоох	-9.02775
▁засах	-9.02852
▁тэмцээн	-9.031
ой	-9.0319
▁бүтэц	-9.03222
▁гурав	-9.0337
▁суурь	-9.03395
▁хүсье	-9.03499
▁өөрчлөлт	-9.03545
▁Итали	-9.03962
▁тэнгисийн	-9.04045
▁ёс	-9.04144
Алтай	-9.04299
▁бүрэлдэхүүнд	-9.04329
▁гуравдугаар	-9.04381
▁газрыг	-9.04414
▁анги	-9.04504
P	-9.04605
▁олж	-9.04646
▁1989	-9.04758
▁хамтлаг	-9.04779
▁32	-9.04823
▁байгалийн	-9.04983
▁жилд	-9.05091
эр	-9.05096
▁нийтийн	-9.0512
▁усан	-9.05122
ах	-9.05211
▁түмний	-9.05313
▁гүйцээж	-9.05475
▁+	-9.05491
▁турш	-9.05528
га	-9.05538
▁үүссэн	-9.05583
"-	-9.05698
▁May	-9.05785
▁байхгүй	-9.05898
▁Газрын	-9.06195
▁агаарын	-9.06348
▁хэт	-9.06399
▁найрамдах	-9.06405
▁юу	-9.0648
▁Өмнө	-9.06505
▁эрхийг	-9.06536
өөс	-9.06571
F	-9.06641
f	-9.06652
▁Ийм	-9.06706
▁дулимаг	-9.06807
▁үндэс	-9.06855
▁намын	-9.0705
p	-9.07071
▁улсууд	-9.07213
Т	-9.07221
Үзэгчид	-9.07306
▁Манжийн	-9.07347
▁1994	-9.07397
▁янз	-9.0753
▁с	-9.07556
▁дэвжээнд	-9.07633
▁хэсгийн	-9.07826
▁сургуульд	-9.08012
▁ар	-9.08099
▁Үүнд	-9.08247
▁өгч	-9.08274
▁эдгээр	-9.08411
▁1998	-9.08414
▁цагийн	-9.08428
”-	-9.08487
▁ахуй	-9.08724
▁Загвар	-9.08809
▁Хамг	-9.08831
▁зүгт	-9.08903
▁Испани	-9.08962
▁тоглож	-9.09025
▁W	-9.09079
▁Иран	-9.09096
▁Үүнийг	-9.09128
▁дуучин	-9.09198
▁амь	-9.09303
▁талаас	-9.09329
▁цагт	-9.09409
▁НБА	-9.09513
▁үзүүлэлт	-9.09524
▁−	-9.09639
▁мөрөн	-9.0968
▁бараг	-9.09753
▁болгох	-9.09839
▁тэмдэг	-9.09998
▁хуучин	-9.10116
▁арал	-9.10226
▁Р	-9.10593
▁дасгалжуулагч	-9.10705
▁September	-9.10793
l	-9.1082
▁авчээ	-9.11024
▁Сэлэнгэ	-9.11034
▁явуулж	-9.11047
▁байхад	-9.11076
▁Хан	-9.11216
▁удаагийн	-9.11264
▁Арван	-9.11378
▁шинээр	-9.1141
▁Сүхбаатар	-9.11443
▁хамтлагийн	-9.11475
▁20-	-9.11521
▁Австрали	-9.11664
▁нэрээр	-9.11735
▁сав	-9.11852
▁дэлхийд	-9.11924
▁урлагийн	-9.11972
В	-9.11985
оны	-9.12
▁33	-9.12034
▁болоод	-9.12077
th	-9.12112
▁долоо	-9.1212
I	-9.12308
▁мэдээ	-9.12334
дугаар	-9.12354
гаас	-9.12486
▁BBC	-9.12504
▁ой	-9.12545
st	-9.12793
жин	-9.12918
▁Бүх	-9.1294
▁Юнайтед	-9.12962
▁1999	-9.13044
▁1996	-9.13168
аараа	-9.13252
▁эхэлжээ	-9.13286
чи	-9.13345
ил	-9.13481
▁см	-9.13599
▁сагсан	-9.13629
▁Баг	-9.13716
▁зохиол	-9.13737
▁урсгал	-9.13772
лах	-9.13782
▁Замнал	-9.13845
▁онцгой	-9.13854
▁Жон	-9.13984
10	-9.13985
▁%	-9.14119
▁O	-9.14193
▁МЭӨ	-9.14194
▁хуулийн	-9.14214
▁Ли	-9.14491
▁алтан	-9.14498
но	-9.14516
▁цэг	-9.1458
▁зорилгоор	-9.14685
▁ахуйн	-9.14783
▁хатуу	-9.14921
▁байлдааны	-9.1509
▁бид	-9.15195
хоёрдугаар	-9.15205
▁гэдгийг	-9.15225
▁хүрч	-9.15228
▁утгатай	-9.15295
▁Гол	-9.15339
h	-9.15397
▁сэтгэл	-9.15408
▁нууц	-9.15508
▁Холбоос	-9.15527
▁харьяат	-9.15655
▁Барселона	-9.15663
▁60	-9.15684
▁2014-	-9.15765
▁шаардлагатай	-9.1585
▁ийм	-9.15962
▁1945	-9.16034
▁мянга	-9.16055
▁Хубилай	-9.16076
▁жагсаалт	-9.16121
▁Дээд	-9.16125
▁улам	-9.16178
▁Лондон	-9.16187
▁ноёд	-9.16244
ос	-9.16263
▁дүр	-9.16531
▁Хөх	-9.16795
▁оруулж	-9.16833
▁хэрэглэж	-9.16836
K	-9.17012
▁вэ	-9.17041
▁original	-9.17082
▁иргэний	-9.17186
▁наймдугаар	-9.17227
▁улстай	-9.17262
▁тохиолдолд	-9.17275
▁16-	-9.17328
▁спортын	-9.17456
ит	-9.17506
уудад	-9.17523
k	-9.177
го	-9.17726
▁УИХ	-9.17929
▁Грек	-9.1815
▁Өндөр	-9.18247
▁Овог	-9.18312
▁ажиллагааг	-9.18348
▁1997	-9.18454
g	-9.18468
▁даяар	-9.18528
▁No	-9.18585
▁засвар	-9.18713
▁хоорондын	-9.1878
%	-9.18797
mn	-9.18829
▁хүрээлэн	-9.18919
▁2011-	-9.18995
▁хүрсэн	-9.1903
R	-9.19156
▁19-	-9.19172
▁байхдаа	-9.19321
▁хувьсгал	-9.19338
▁явсан	-9.19416
доо	-9.19503
”,	-9.1956
▁харьцаагаар	-9.19596
▁тоглолтын	-9.19798
гээр	-9.19861
▁тэмцээнд	-9.19898
▁та	-9.20024
)-	-9.20074
▁University	-9.20079
▁Испанийн	-9.20183
G	-9.20184
▁тоглосон	-9.20254
▁Ойрад	-9.20275
▁үедээ	-9.20486
▁хувийг	-9.2054
▁байгуулжээ	-9.20546
▁Халх	-9.2061
▁Нийслэл	-9.20745
▁хүнийг	-9.20761
▁хүүхэд	-9.20891
▁35	-9.20946
▁бүтээсэн	-9.20947
01	-9.21137
▁олимп	-9.21171
▁шүүх	-9.21175
▁хөгжлийн	-9.2118
ү	-9.21283
▁бут	-9.21347
▁эзэлж	-9.21404
▁бичиж	-9.21492
▁код	-9.21557
▁аймгууд	-9.21613
▁1.3	-9.21755
▁гарах	-9.21805
▁хувьсгалын	-9.21836
▁мэдээллийн	-9.21894
▁from	-9.22037
гч	-9.22039
▁чанар	-9.22056
▁Москва	-9.22155
▁70	-9.22351
▁тоглолтууд	-9.22453
▁түрүү	-9.22512
ам	-9.22564
on	-9.22699
▁ашиглаж	-9.22767
▁зэвсэг	-9.23003
▁Press	-9.23007
▁Би	-9.2312
И	-9.23136
▁хур	-9.23144
▁шигшээд	-9.23264
▁гаргах	-9.23343
▁түүхийн	-9.23643
▁явж	-9.23701
▁1995	-9.23902
ус	-9.23906
▁чөлөөт	-9.24041
▁доор	-9.24072
▁New	-9.24093
▁1988	-9.24201
▁охин	-9.24476
▁(1):	-9.24493
▁шалгаруулах	-9.24496
▁асуудлыг	-9.24497
▁түүнд	-9.24525
▁бүтээгдэхүүн	-9.24847
▁Цол	-9.24857
▁байнгын	-9.2506
ман	-9.25073
▁умард	-9.25332
▁ажиллагааны	-9.25336
▁Зарим	-9.25369
▁текст	-9.25402
▁химийн	-9.25432
▁мөнгө	-9.25485
нэгдүгээр	-9.25519
▁January	-9.25564
▁хурал	-9.25613
▁түүхтэй	-9.25857
ор	-9.25884
08	-9.25931
▁хошууны	-9.25991
▁Нам	-9.26061
L	-9.26063
▁гараа	-9.26148
▁Хоёр	-9.26152
▁эр	-9.26154
▁юмуу	-9.26218
▁тавдугаар	-9.26228
▁хоорондоо	-9.26259
▁дөрөв	-9.26274
▁Температур	-9.2636
▁ижил	-9.26438
▁онцлог	-9.26439
▁Өмнөх	-9.26657
u	-9.26822
▁алдартай	-9.27006
▁Манчестер	-9.2721
▁эцэст	-9.27222
гүйгээр	-9.27223
▁нуурын	-9.2724
▁улиралд	-9.27335
▁Бусад	-9.27429
▁эзлэх	-9.27459
▁иргэд	-9.27467
▁цолтой	-9.27524
or	-9.27642
▁ойн	-9.27785
▁Гадны	-9.27844
▁Ван	-9.27931
▁December	-9.27968
▁эрэг	-9.27972
▁судалгаа	-9.28033
▁тохиолдол	-9.28198
▁{\	-9.2824
▁c	-9.2826
▁In	-9.28308
▁цөөн	-9.28337
!	-9.28626
▁байршил	-9.28626
▁зөв	-9.28629
▁санаа	-9.28645
ен	-9.28738
▁татвар	-9.28807
▁хэмжээнд	-9.28827
▁хэдий	-9.28885
▁температур	-9.28984
́	-9.29012
▁1939	-9.29036
▁өдрийн	-9.29097
▁сүүлд	-9.29104
▁1.0	-9.29106
▁Ил	-9.29138
▁vte	-9.29185
▁Дундад	-9.2935
▁Ийнхүү	-9.29366
▁өөрсдийн	-9.29387
▁хэрэглэх	-9.29544
Эрдэнэ	-9.29569
▁Австрал	-9.29569
▁зургаан	-9.29675
▁хөдөлгөөн	-9.29716
▁тэдгээр	-9.29724
▁ашиглах	-9.29726
▁ашиглан	-9.29786
▁Хурлын	-9.29791
▁удирдагч	-9.29881
▁Бөх	-9.29975
ат	-9.29986
▁киноны	-9.29999
▁түрэг	-9.30059
▁орнууд	-9.30094
▁History	-9.30165
▁ажлыг	-9.30211
▁ял	-9.30314
▁1980	-9.30332
▁зүйлийн	-9.30504
▁v	-9.30563
▁эргэн	-9.30673
\	-9.30699
▁барилга	-9.31113
▁ханы	-9.31152
ис	-9.31322
▁хамаарах	-9.31527
▁ажлын	-9.31602
▁Тухай	-9.31662
▁U	-9.31664
▁Ромын	-9.31698
▁харилцан	-9.31739
▁шинэчилсэн	-9.31849
▁в	-9.31907
▁эрүүл	-9.32123
▁хорооны	-9.32128
V	-9.32247
▁Мөнх	-9.32344
гаа	-9.32378
▁Уур	-9.32391
▁сонин	-9.32429
▁Нобел	-9.32431
▁түрүүлж	-9.32444
▁хүчээр	-9.32636
▁бүл	-9.32708
▁худалдаа	-9.32769
}	-9.32809
▁тээврийн	-9.32816
▁2.3	-9.32882
▁одон	-9.32964
z	-9.32996
▁Олимп	-9.33061
Л	-9.33061
▁Одоо	-9.33086
▁захирагч	-9.33087
▁хятадын	-9.33115
▁замаар	-9.33176
▁биеийн	-9.3325
▁өгөх	-9.33255
▁яамны	-9.33276
▁элч	-9.33351
▁ордог	-9.33388
▁34	-9.33505
▁with	-9.33557
▁2019	-9.33585
▁үндэстний	-9.33588
Уул	-9.33704
▁Хот	-9.33725
▁'	-9.33759
▁National	-9.33788
▁аялгуу	-9.33828
▁түр	-9.33862
▁2018	-9.33876
▁чадсан	-9.33949
▁17-	-9.34082
▁тавьсан	-9.34099
▁Цэргийн	-9.34185
▁тогтсон	-9.34195
▁удирдлага	-9.34274
▁т	-9.34285
▁нөгөө	-9.34286
▁барилгын	-9.34361
▁амьдрал	-9.34463
▁эс	-9.34594
09	-9.34624
▁1993	-9.34636
▁хамтын	-9.34709
лэн	-9.3473
▁энд	-9.34845
▁амьсгал	-9.3496
анд	-9.35027
▁нутагтай	-9.35155
▁is	-9.35215
▁Шар	-9.35292
▁хотноо	-9.35306
▁хүчирхэг	-9.35463
el	-9.35587
▁November	-9.35606
▁эрс	-9.35696
▁аюулгүй	-9.3575
▁тэгш	-9.35816
▁гарчиг	-9.3591
▁мөнгөн	-9.35918
▁насны	-9.35972
▁б	-9.36082
▁гишүүд	-9.36144
▁хайлт	-9.36152
▁3.2	-9.3617
▁United	-9.36359
▁Польш	-9.36361
▁→	-9.3637
um	-9.36476
Ш	-9.36617
▁шалтгаан	-9.36638
▁хэн	-9.36732
▁(18	-9.36871
▁хэлбэл	-9.36883
▁өв	-9.3694
▁хэв	-9.37004
▁үүнийг	-9.37077
▁Төмөр	-9.3711
▁Тан	-9.37119
▁Африк	-9.37187
▁Алт	-9.37247
▁үсгээр	-9.37264
▁Баянхонгор	-9.37268
▁1986	-9.37323
▁явдлууд	-9.37329
▁Хоёрдугаар	-9.37366
▁архивлагдсан	-9.37421
W	-9.37492
25	-9.37649
▁амиа	-9.37663
▁18-	-9.3776
▁төдийгүй	-9.37768
▁дөрөвдүгээр	-9.37805
▁үйлдвэрийн	-9.38093
′	-9.38188
Йорк	-9.38232
▁туслах	-9.3827
О	-9.38334
▁f	-9.38349
▁харьцангуй	-9.38355
дөө	-9.38403
▁үүсгэн	-9.38505
▁далай	-9.38779
▁худалдааны	-9.38792
▁компьютер	-9.38798
▁зэвсэгт	-9.38808
▁хоног	-9.38865
▁лиг	-9.38884
▁сайхан	-9.39052
▁нөөц	-9.39169
▁2012-	-9.39182
▁мод	-9.39198
▁эхэн	-9.39221
▁машин	-9.39249
▁чимэг	-9.39328
▁зай	-9.39433
▁1984	-9.3947
▁долоодугаар	-9.39569
▁зүг	-9.39653
▁April	-9.39717
▁түүнээс	-9.39859
Шүүгчид	-9.39936
▁иржээ	-9.40017
ди	-9.40123
▁даваа	-9.40151
▁at	-9.40213
▁Далай	-9.40413
▁тогтоосон	-9.40483
▁хуурай	-9.40512
▁үйлдвэрлэл	-9.4065
ly	-9.40788
▁Sport	-9.40794
▁буу	-9.40864
▁эхлээд	-9.40869
▁агаар	-9.40892
ic	-9.40901
▁хүрэл	-9.40902
▁кВт	-9.40905
▁хэрэглэдэг	-9.40952
▁Аргентин	-9.41012
▁үнэ	-9.4115
▁Ши	-9.41216
▁амьтан	-9.41274
▁1921	-9.41299
▁Австри	-9.41372
▁°	-9.41416
▁халуун	-9.41477
▁4.1	-9.4149
▁Мадрид	-9.41509
▁Дараах	-9.41523
▁багтай	-9.41536
▁ястан	-9.41546
▁төгссөн	-9.41563
▁газраас	-9.4159
▁бөмбөгийн	-9.41764
▁болохыг	-9.41781
лаа	-9.41863
▁орнуудын	-9.41872
▁цолыг	-9.41995
▁Шагнал	-9.42
▁улирал	-9.42032
The	-9.42078
▁материал	-9.42089
▁Retrieved	-9.42098
▁эгшиг	-9.42251
лаг	-9.42384
гоол	-9.42405
▁хүмүүсийн	-9.42408
ur	-9.42484
▁дотоодын	-9.42501
▁байгууллагын	-9.42628
▁200	-9.42683
▁80	-9.4278
▁Ла	-9.42789
▁Улмаар	-9.42867
▁чадаагүй	-9.42961
05	-9.43038
▁ихэвчлэн	-9.43124
▁хүчийг	-9.4327
▁15-	-9.4332
▁наадам	-9.43396
▁байсныг	-9.43428
▁Зеланд	-9.43446
▁Тэнгэр	-9.43505
▁спорт	-9.43607
▁орно	-9.43623
▁ангилал	-9.43662
▁үгүй	-9.43829
▁боловсрол	-9.43976
ст	-9.44023
нээс	-9.44156
▁Тиймээс	-9.44158
▁эрдэмтэн	-9.4423
06	-9.4424
▁цэнгэлдэх	-9.44323
▁Холбоо	-9.4453
ян	-9.44581
an	-9.44612
ю	-9.44632
11	-9.44636
лт	-9.44803
▁хүртэлх	-9.44903
▁зээлийн	-9.45159
ie	-9.45282
▁хөдөө	-9.45296
▁45	-9.45299
▁танхим	-9.45311
18	-9.45359
▁256	-9.45371
▁банк	-9.45449
▁удаагаа	-9.45565
▁есдүгээр	-9.45703
ри	-9.45727
▁Уйгур	-9.45744
▁шат	-9.45799
▁байгааг	-9.45862
▁галт	-9.45884
▁Тухайлбал	-9.46017
▁зэргээр	-9.46017
ль	-9.46045
▁генерал	-9.46045
▁Music	-9.4609
▁*	-9.46091
▁Түүнийг	-9.46138
дэг	-9.46244
аг	-9.46249
▁мэдэлд	-9.46288
style	-9.463
▁Энэтхэгийн	-9.46302
үүдийг	-9.46303
▁Алтайн	-9.46381
▁1941	-9.46417
▁тэднийг	-9.46439
ла	-9.46441
▁төхөөрөмж	-9.46489
▁тэмцээний	-9.46497
▁хөл	-9.46506
▁ашигладаг	-9.46607
▁13-	-9.46608
▁1982	-9.46647
ch	-9.46689
w	-9.46721
▁хэмжээгээр	-9.46732
▁March	-9.46792
▁гал	-9.46793
▁хийд	-9.46803
▁барих	-9.46835
▁жишээ	-9.46862
▁Ю	-9.4687
▁October	-9.46938
орос	-9.46947
▁Төрсөн	-9.47017
–19	-9.4703
▁онуудад	-9.47035
Р	-9.47083
▁даван	-9.47113
▁зэргийг	-9.47204
дан	-9.47322
▁дотроо	-9.47476
▁тийм	-9.47505
ко	-9.47537
▁хувилбар	-9.47543
хэн	-9.47627
▁хүрээ	-9.47681
▁эхээр	-9.47712
▁нэмэлт	-9.47724
▁авдаг	-9.47734
▁Далайн	-9.47765
▁хөдөлгүүр	-9.47771
▁Дархан	-9.47846
▁чуулган	-9.47848
▁салбарт	-9.4789
тон	-9.47964
▁Төрөл	-9.4797
▁Алтай	-9.48059
жи	-9.48084
▁Хаант	-9.48096
▁зээл	-9.48121
▁шинэчлэ	-9.48151
▁хангах	-9.48225
▁эхлэв	-9.48257
▁тавьж	-9.48257
▁даасан	-9.48336
▁овгийн	-9.48361
З	-9.48399
▁Астра	-9.48514
▁алдарт	-9.48594
▁урлаг	-9.48622
▁төрөгсөд	-9.48725
▁2020	-9.48756
ом	-9.48805
▁давхар	-9.48842
▁Учир	-9.48897
▁Хотын	-9.48916
▁Entertainment	-9.4893
▁де	-9.48958
▁барагсад	-9.49033
▁нийгэм	-9.49068
▁2013-	-9.49081
▁хожим	-9.49115
арс	-9.49134
▁Си	-9.49152
▁тун	-9.49274
▁нурууны	-9.49283
▁замнал	-9.49315
le	-9.49327
▁Украин	-9.49342
▁уралдаан	-9.49377
04	-9.49401
▁s	-9.49402
▁цөм	-9.49435
▁хэлж	-9.49444
▁байлдан	-9.49457
▁Уран	-9.49575
▁ашиг	-9.49802
▁гарган	-9.49803
▁X	-9.49825
▁Зөвлөл	-9.49855
ээд	-9.49856
▁радио	-9.49886
▁эрчим	-9.49907
▁Арена	-9.49964
▁Жин	-9.49975
▁англи	-9.50026
▁оржээ	-9.50141
▁орд	-9.50202
▁тушаал	-9.50222
▁үнэн	-9.50345
▁Аймаг	-9.5037
хээ	-9.50375
ө	-9.50404
▁зэвсгийн	-9.50462
▁огноо	-9.5048
▁байрладаг	-9.5049
▁автомашин	-9.50582
ни	-9.50624
▁к	-9.50628
display	-9.50688
▁зургаадугаар	-9.50703
▁38	-9.50723
02	-9.50782
тан	-9.50798
▁48	-9.50799
эл	-9.50848
▁энгийн	-9.50874
▁харцага	-9.50897
16	-9.50902
▁Анх	-9.50963
▁үзүүлсэн	-9.51005
вал	-9.51142
13	-9.51158
▁салбарын	-9.51193
’	-9.51195
▁February	-9.51258
▁сараас	-9.51299
▁эхнэр	-9.51323
▁International	-9.51414
▁амьдралын	-9.51432
▁36	-9.51514
▁өөрийгөө	-9.51528
нэ	-9.5159
▁ойр	-9.51605
▁зун	-9.51641
▁хамгаалагч	-9.51679
да	-9.51757
▁хийн	-9.51811
15	-9.51828
▁Нэгдүгээр	-9.51833
▁нэрийн	-9.51873
▁үү	-9.5192
▁даргаар	-9.52003
▁хотууд	-9.52014
▁37	-9.52147
▁ирэх	-9.52231
▁жин	-9.52273
▁ургамлын	-9.52372
▁1979	-9.52383
▁хэргийг	-9.52482
▁явц	-9.52501
▁техник	-9.52587
ф	-9.52757
▁ширээнд	-9.52769
▁Сүн	-9.528
▁хийдэг	-9.52819
ик	-9.52839
▁Ардчилсан	-9.52868
▁яам	-9.52952
▁1987	-9.52971
▁ардчилсан	-9.53039
▁чулуу	-9.53066
▁Хувийн	-9.53406
▁хунтайж	-9.53438
▁Түүнчлэн	-9.53438
▁Ингээд	-9.53445
▁чулуун	-9.53496
▁суусан	-9.53555
▁оргил	-9.53682
▁Мексик	-9.53684
co	-9.53791
▁хоол	-9.53869
▁хэргийн	-9.53876
▁ор	-9.53899
▁онол	-9.54005
▁ихээр	-9.54088
j	-9.54143
▁Анхны	-9.54143
▁зургаа	-9.54302
▁удирдах	-9.54325
▁төлөв	-9.54455
ель	-9.54472
▁гүйцэтгэх	-9.54522
▁Сумын	-9.54624
▁оруулах	-9.54758
▁хий	-9.54766
▁вангийн	-9.54791
▁14-	-9.54959
▁Хасаг	-9.54992
ел	-9.55025
▁оршино	-9.55206
▁удаан	-9.55476
▁Тэмдэглэл	-9.55517
▁сүлжээ	-9.55518
▁арлууд	-9.55527
▁Серби	-9.55603
▁Байрлал	-9.5566
▁ажилладаг	-9.55727
▁МАХН	-9.55769
▁Гараа	-9.55869
▁системийн	-9.55916
▁амьдардаг	-9.55938
▁хэрхэн	-9.55942
▁га	-9.56145
одоо	-9.56196
▁шүү	-9.56221
▁хувцас	-9.56224
▁1985	-9.56348
▁байдлын	-9.56376
▁тусламж	-9.56608
re	-9.56689
лэг	-9.56691
өд	-9.56711
▁Мөнгө	-9.56752
▁алдсан	-9.56759
▁эрхт	-9.56943
▁Буриад	-9.56944
-12	-9.5699
17	-9.57043
П	-9.57068
ки	-9.57122
22	-9.57129
▁тод	-9.57136
▁байгуулалт	-9.57168
▁төлөөлөгч	-9.57171
▁хоногийн	-9.57234
▁улсаас	-9.57273
▁Coldplay	-9.57341
▁128	-9.57377
▁багууд	-9.57379
X	-9.57393
vv	-9.57472
▁хяналт	-9.57477
▁Да	-9.57592
▁тэмцэл	-9.57677
▁эм	-9.57692
та	-9.57812
▁алт	-9.57817
▁дүүрэг	-9.57927
▁эзэлсэн	-9.57936
аль	-9.57961
▁дараагийн	-9.58128
▁болохоор	-9.5825
▁бүтээлүүд	-9.58279
▁толь	-9.58287
▁үзүүлэх	-9.5839
ия	-9.584
▁үгийн	-9.58446
▁сүүлчийн	-9.58507
▁хойг	-9.5851
▁Хаан	-9.58528
*	-9.58536
▁зорилго	-9.58567
▁АШТ	-9.58636
▁хутагт	-9.58666
ей	-9.5872
▁Соёл	-9.58725
▁уламжлалт	-9.58968
▁хааныг	-9.59007
20	-9.59047
▁аравдугаар	-9.59179
▁уугуул	-9.59184
▁Казахстан	-9.59203
▁Сити	-9.59353
19	-9.59358
▁хаанд	-9.59388
▁зориулсан	-9.59405
аасаа	-9.59429
▁шаньюй	-9.59465
▁шатны	-9.59478
+	-9.59522
▁аян	-9.59527
▁1960	-9.59541
▁Жишээ	-9.59545
▁найман	-9.59585
▁Перс	-9.59628
▁хөгжиж	-9.5965
▁as	-9.59663
▁түшмэл	-9.59675
▁очиж	-9.59746
▁зөвлөл	-9.59766
▁хүлээж	-9.59787
▁Хэнтий	-9.5985
▁байдалд	-9.59898
▁Эхний	-9.59947
хон	-9.59968
▁Эр	-9.60097
PDF	-9.60112
▁Реал	-9.60224
▁гэжээ	-9.6023
▁сайхны	-9.6024
▁Chart	-9.60258
▁сэтгүүл	-9.60276
▁стандарт	-9.60369
▁аймагт	-9.60386
­	-9.6042
▁44	-9.60527
▁Зүүнгарын	-9.60533
▁55	-9.60559
il	-9.6059
▁давуу	-9.60619
▁асар	-9.60662
▁ялгаатай	-9.60675
▁иргэдийн	-9.60886
▁нягт	-9.60969
▁Түрэг	-9.61061
мин	-9.61197
▁нэлээд	-9.61201
▁und	-9.61214
▁2.0	-9.61297
▁Намтар	-9.61364
ес	-9.61368
▁санхүүгийн	-9.6143
▁Хятадад	-9.61458
▁яг	-9.61487
▁Премьер	-9.6162
▁1981	-9.61761
▁эрхтэй	-9.61793
▁УЕФА	-9.61823
▁d	-9.61836
▁явуулах	-9.61862
▁тулалдаан	-9.61871
it	-9.61896
▁Хэл	-9.61907
▁тос	-9.61922
▁на	-9.61975
▁War	-9.62044
99	-9.6205
▁өнөөгийн	-9.62076
▁ажилласан	-9.6219
▁ур	-9.62204
▁дээ	-9.62233
▁30-	-9.62236
▁бууж	-9.62256
онд	-9.62361
▁үүрэгтэй	-9.62393
▁тайж	-9.62439
▁Эртний	-9.6252
▁тоглолтод	-9.62571
man	-9.62682
▁Формула	-9.62796
лын	-9.62831
▁чадахгүй	-9.62867
▁хуваагддаг	-9.62878
07	-9.62944
▁суманд	-9.62987
▁Ам	-9.63016
▁хэвээр	-9.63058
Эх	-9.63071
▁1970	-9.63077
▁байгаагүй	-9.63112
▁болгожээ	-9.63138
▁судалгааны	-9.63166
▁өгчээ	-9.63171
▁нэгдэл	-9.63299
▁Дараа	-9.63304
▁Холбоот	-9.63427
▁нутгаар	-9.63449
▁ордны	-9.636
▁49	-9.63623
▁Хүрэл	-9.63649
ми	-9.63706
▁долоон	-9.63735
▁хос	-9.63754
▁амьд	-9.63786
28	-9.63808
U	-9.63895
▁MF	-9.63992
▁тамирчин	-9.64069
▁Википедиа	-9.64073
▁зан	-9.64114
▁зуны	-9.64187
14	-9.64234
▁Монголыг	-9.64245
▁төлөөх	-9.64551
▁сайдын	-9.64561
▁дорнод	-9.6469
▁харна	-9.64727
▁хөлөг	-9.64789
▁үзүүлж	-9.6486
ун	-9.64864
▁техникийн	-9.64906
▁1.5	-9.64931
▁өнгө	-9.64954
▁хотоос	-9.64966
▁хэвлэл	-9.65015
▁III	-9.65037
үүдийн	-9.65038
ол	-9.65084
▁ордон	-9.65192
▁DF	-9.65199
▁муу	-9.6523
лин	-9.65272
▁Гуравдугаар	-9.65279
▁Я	-9.65391
▁90	-9.65442
▁Дотоод	-9.65444
▁эрэгтэй	-9.6548
▁Түрэгийн	-9.65494
▁мэдээллийг	-9.65505
▁хамтаар	-9.65603
▁орчимд	-9.65633
▁з	-9.65682
▁Монголчуудын	-9.65757
▁хэлэлцээр	-9.65966
▁ялангуяа	-9.66054
▁Эрдэнэ	-9.66055
12	-9.66073
Монголын	-9.66088
аж	-9.66117
▁компанийн	-9.66133
▁(2010)	-9.66177
▁програм	-9.66252
▁олсон	-9.66348
▁нэрт	-9.66364
▁шагналыг	-9.66376
▁тогтмол	-9.66381
▁дүрэм	-9.66382
▁Номхон	-9.66448
▁эв	-9.66459
лж	-9.66494
ro	-9.66532
▁гарчээ	-9.66539
▁ихэд	-9.66581
ation	-9.66616
▁зэргийн	-9.66778
▁доод	-9.66829
ul	-9.66892
▁шугам	-9.66989
▁улсуудын	-9.67024
ро	-9.6707
ol	-9.67078
▁түрүүлсэн	-9.67096
▁хэлбэртэй	-9.67202
▁идэвхтэй	-9.67219
ary	-9.6739
▁Халимаг	-9.6755
▁сонгогдсон	-9.67585
▁худалдан	-9.67608
▁1.4	-9.6763
▁Төр	-9.6763
чид	-9.67748
ма	-9.67772
▁хөгжил	-9.67807
▁цохилт	-9.67866
▁төдий	-9.67912
▁ойролцоо	-9.67929
▁Төвөд	-9.6795
▁тогтносон	-9.67956
▁өрх	-9.67962
гээс	-9.67966
ээрээ	-9.67968
▁оролцох	-9.68006
си	-9.68017
▁ойлголт	-9.68039
▁хурдан	-9.6807
▁Сталин	-9.68072
▁мотор	-9.68077
▁1972	-9.68196
▁удалгүй	-9.68205
▁угсаатан	-9.68229
▁хол	-9.68241
Ж	-9.68276
▁Хүннү	-9.68323
▁байвал	-9.68355
▁42	-9.68356
▁километр	-9.68452
▁үнэт	-9.68526
▁аялал	-9.6858
▁Тэрбээр	-9.68952
▁25-	-9.68974
▁кинонд	-9.6907
▁удирдсан	-9.69083
▁хэмжээг	-9.69137
is	-9.69176
▁хөгжсөн	-9.69203
▁1924	-9.69206
▁өвдөг	-9.69235
▁дээрээ	-9.69264
▁Гэр	-9.69285
▁t	-9.69322
▁чадвар	-9.69338
▁тооллын	-9.69366
СӨН	-9.69455
де	-9.69491
ir	-9.69539
▁тунадас	-9.69546
to	-9.69652
▁амтай	-9.69658
▁буудал	-9.69721
▁явах	-9.69731
▁Өөрөөр	-9.6974
▁загварын	-9.69813
▁хэрэгсэл	-9.69822
▁зургийг	-9.69833
90	-9.69834
▁тулаан	-9.69895
96	-9.69909
иа	-9.69919
▁боллоо	-9.70136
▁1911	-9.70153
▁Жи	-9.70166
▁Манай	-9.70176
нууд	-9.70242
▁x	-9.70251
▁зуунаас	-9.70278
ань	-9.7038
▁байснаас	-9.70417
▁довтолж	-9.70444
▁байрлах	-9.70537
▁угсааны	-9.70545
80	-9.70577
▁зүтгэлтэн	-9.70723
▁Чан	-9.70774
▁өвөг	-9.70853
▁цуврал	-9.70856
▁хөгжим	-9.70868
▁хугацааны	-9.70988
▁Багийн	-9.71013
▁сөрөг	-9.71018
at	-9.71031
▁тогтвортой	-9.71036
▁**	-9.71106
▁захирч	-9.71113
▁үүнээс	-9.71247
▁литр	-9.71292
▁түвшинд	-9.71293
▁ан	-9.71346
▁нэрлэх	-9.71366
ru	-9.71395
ет	-9.71468
▁гэгч	-9.71492
▁Тайвань	-9.71641
▁39	-9.71714
их	-9.71727
▁нэрлэж	-9.71884
▁ерөнхийлөгчийн	-9.71962
▁толио	-9.71978
▁хөрсний	-9.72063
▁21-	-9.72125
ти	-9.72133
▁1950	-9.72201
▁гаргажээ	-9.72251
▁нэрэмжит	-9.72262
▁хөнгөн	-9.72274
үүдэд	-9.72281
▁1912	-9.72304
лон	-9.72323
сарын	-9.72354
▁байгуулагдаж	-9.72393
▁Ким	-9.72405
▁Бүс	-9.72417
▁Зураг	-9.72427
▁үйлчилгээ	-9.72464
»,	-9.72474
▁Хүний	-9.72496
▁1946	-9.72508
▁эрдэм	-9.72544
58	-9.72566
▁зээлд	-9.72601
▁зэрэгцээ	-9.72642
Э	-9.72657
▁Үйл	-9.72676
▁www	-9.72715
▁буриад	-9.72787
лэх	-9.72806
▁Гэтэл	-9.72912
хи	-9.73013
▁хурлын	-9.73023
▁номын	-9.73033
▁1940	-9.73043
▁тархсан	-9.73044
▁хуул	-9.73102
55	-9.73228
27	-9.73238
▁дунджаар	-9.73242
▁дууг	-9.73251
▁4.2	-9.73263
▁1961	-9.73265
▁нийтэд	-9.73285
▁клуб	-9.73385
▁Ес	-9.73469
J	-9.73567
▁нартай	-9.73586
▁m	-9.73599
▁гүнж	-9.73629
▁жинхэнэ	-9.7365
“	-9.73668
▁төгсгөл	-9.73701
▁үзсэн	-9.73702
▁хийгээд	-9.73736
▁а	-9.73748
▁хөшөө	-9.73767
▁коммунист	-9.73803
▁хоолой	-9.7384
▁хангамж	-9.7395
▁орнуудад	-9.73973
эх	-9.74119
▁багтдаг	-9.74188
▁†	-9.74226
▁барьсан	-9.74226
▁гэмт	-9.74275
▁1949	-9.74367
▁ил	-9.74482
▁өнөөдөр	-9.74513
▁бичигт	-9.74527
▁1956	-9.74555
▁баялаг	-9.74596
▁Wiktionary	-9.7462
▁1978	-9.74681
ган	-9.747
▁Ди	-9.74702
▁элссэн	-9.74758
85	-9.74792
▁мужид	-9.74913
▁1976	-9.74929
29	-9.74932
▁i	-9.74996
▁үүргийг	-9.7502
▁эхэнд	-9.75041
▁Бор	-9.75068
▁энх	-9.75147
▁багийг	-9.75165
ar	-9.75223
▁эргэлт	-9.75224
ев	-9.75271
ба	-9.75332
саар	-9.75356
▁1932	-9.75376
▁судлаачид	-9.75438
Ү	-9.7545
▁Хэрэв	-9.7547
▁1959	-9.75534
=	-9.75542
▁хэлсэн	-9.7555
▁халдвар	-9.75589
▁болохгүй	-9.75628
▁гэвэл	-9.75689
44	-9.75707
▁43	-9.75777
ран	-9.75779
▁зайд	-9.75844
▁Хорват	-9.7592
▁Ө	-9.75963
▁1964	-9.76065
▁ховор	-9.76086
▁эрдэмтэд	-9.76099
▁явуулсан	-9.76102
43	-9.76112
▁Эл	-9.76161
▁минут	-9.76207
2)	-9.76258
▁боломжгүй	-9.76276
▁гэрэл	-9.763
▁холбогдсон	-9.76361
▁урьд	-9.76364
▁Энд	-9.76392
▁цааш	-9.76393
ич	-9.76427
▁дэмжлэг	-9.76447
▁хэрэгт	-9.76495
ван	-9.76507
ноос	-9.76536
▁гардаг	-9.76571
▁Дэд	-9.76706
▁04	-9.76716
сээр	-9.76719
▁тийш	-9.76729
▁монголчуудын	-9.76813
▁бараа	-9.76996
▁2010.	-9.77063
35	-9.7711
▁Дэлхий	-9.77142
▁арлын	-9.77185
▁2.4	-9.77191
▁Тэдний	-9.77223
▁Латин	-9.7724
78	-9.77259
▁Орчин	-9.77296
то	-9.77321
▁Population	-9.77329
ва	-9.77332
▁мэдэх	-9.77349
▁51	-9.77401
▁дөрвөлжин	-9.77443
▁сүлд	-9.77453
▁холбогдох	-9.77456
▁1968	-9.77549
Ц	-9.77734
▁Хань	-9.77779
▁мөр	-9.77785
▁бодит	-9.77806
▁байгуулав	-9.77856
▁сайт	-9.77947
▁эхэлж	-9.77975
▁дагаар	-9.78158
▁Бээжин	-9.78225
ia	-9.78225
47	-9.78257
▁Болгар	-9.7837
▁зохиосон	-9.78401
▁төстэй	-9.78402
▁хурд	-9.7842
▁тэнд	-9.78497
▁46	-9.78501
▁байгуулан	-9.78546
▁дулаан	-9.78677
дог	-9.78702
▁аюул	-9.78719
▁хөгжүүлэх	-9.78773
▁Португал	-9.78799
▁хоёрын	-9.78851
▁хохирол	-9.78956
▁цааз	-9.78975
▁Эрх	-9.78996
24	-9.79018
▁харъяат	-9.79066
▁харьяа	-9.79107
▁дивиз	-9.79168
сөн	-9.79179
▁Сүүлд	-9.79194
▁хэрэгжүүлэх	-9.79458
▁хамтарсан	-9.79514
▁Де	-9.79528
▁цөмийн	-9.79614
▁хүүхдийн	-9.79658
▁Ингэснээр	-9.79788
▁үзвэл	-9.79789
▁шувуу	-9.79805
эв	-9.79865
ур	-9.79927
▁гүйцэтгэж	-9.79927
хар	-9.80076
▁ү	-9.80081
▁элемент	-9.801
▁нүүрс	-9.80154
Алтан	-9.80211
▁эсэх	-9.80212
▁очсон	-9.80213
▁хөх	-9.80255
▁1983	-9.80264
өн	-9.80274
▁балгас	-9.80277
▁300	-9.80296
▁зүйлийг	-9.8031
▁Өмнөговь	-9.80348
▁Швейцар	-9.80368
▁нарт	-9.8044
▁хэлийг	-9.80463
▁Аваргууд	-9.8047
▁боловсролын	-9.80475
▁үлдэж	-9.80491
▁500	-9.80576
▁олноор	-9.80595
▁66	-9.8062
▁1971	-9.80701
▁тогтоож	-9.80746
▁чөлөөлөх	-9.80807
лийн	-9.80887
▁Мартин	-9.80893
▁өвөрмөц	-9.8091
▁Лигдэн	-9.80992
ра	-9.80995
▁гавьяат	-9.81002
▁захиргаа	-9.81008
▁сонгууль	-9.81009
▁Жан	-9.8101
▁эрт	-9.8105
▁хүртэж	-9.81055
▁Эзэн	-9.81092
Гоол	-9.81132
00	-9.81142
▁танк	-9.81171
▁газрууд	-9.81173
▁явцад	-9.81175
▁хөтөлбөр	-9.81187
▁дамжуулан	-9.81219
60	-9.81223
бо	-9.81227
Энэ	-9.81238
▁ангийн	-9.81304
▁сул	-9.81336
▁заасан	-9.81338
▁эхлэл	-9.81353
Y	-9.81434
▁1969	-9.81454
et	-9.81498
▁хариу	-9.81517
▁үүний	-9.81546
▁Шотланд	-9.81548
Хөгжмийн	-9.81618
▁үргэлжилсэн	-9.81619
▁Football	-9.81661
▁байранд	-9.81697
▁5.1	-9.81708
▁гадаадын	-9.81732
▁Z	-9.81754
▁ирээд	-9.81761
▁дамжин	-9.81763
-2	-9.81765
▁дорно	-9.81786
▁Association	-9.8201
▁тогтолцоо	-9.82016
▁хүйтэн	-9.82017
▁тэргүүтэй	-9.82046
им	-9.82053
Шүүгч	-9.82182
▁Орон	-9.82188
▁Нутаг	-9.82236
▁шагналт	-9.82249
тер	-9.82275
▁Батмөнх	-9.82288
гээ	-9.82302
▁суудаг	-9.82352
▁3.3	-9.82352
▁тоглолтоо	-9.82389
▁өндөрлөг	-9.82419
▁салхи	-9.82473
▁цэргээ	-9.8252
▁байгаль	-9.82546
▁Орхон	-9.82578
▁хант	-9.82614
▁төвийн	-9.82627
21	-9.82649
▁хор	-9.82662
▁лигт	-9.82777
Өндөр	-9.82796
ир	-9.82819
▁бодлогын	-9.82844
▁төвд	-9.82911
▁хэм	-9.82911
энд	-9.82942
▁28-	-9.83078
▁шөвгөрө	-9.83194
▁зохиолын	-9.83237
▁ахмад	-9.83246
▁Кан	-9.83259
▁шянь	-9.83268
▁Байгаль	-9.83316
▁жилүүдэ	-9.83323
эм	-9.83328
▁нэрлэсэн	-9.83389
▁харилцааны	-9.83478
▁b	-9.83582
▁1975	-9.83598
▁байнга	-9.83631
▁яруу	-9.83638
▁минь	-9.83655
-1	-9.83671
ло	-9.8371
▁1962	-9.83736
▁улирлын	-9.83783
▁зургийн	-9.83817
▁Мар	-9.83884
▁<	-9.839
▁1936	-9.8401
▁автомашины	-9.84025
▁бичих	-9.84039
▁бүлгийн	-9.84041
▁үйлдвэрлэлийн	-9.84057
26	-9.84197
86	-9.84303
▁Унгар	-9.84363
▁эцсийн	-9.84386
▁итгэл	-9.8442
▁нилээд	-9.84437
▁Ал	-9.84452
▁мэндийн	-9.84459
▁тэрэг	-9.84521
▁чин	-9.84531
▁52	-9.84597
▁Даваа	-9.84611
ье	-9.84623
▁Хиргис	-9.8463
▁Чандмань	-9.84649
▁хавтгай	-9.84663
▁am	-9.8473
ог	-9.84748
▁мэдэл	-9.84853
▁эмч	-9.84862
▁хөндий	-9.84925
▁Ко	-9.84966
▁Түрүү	-9.85039
▁Хамаара	-9.85047
▁Ø	-9.8509
▁нутгаас	-9.85109
▁эрхийн	-9.85112
▁Тэс	-9.85112
▁багтсан	-9.85239
▁амьдрах	-9.85241
▁Галдан	-9.85285
▁La	-9.85318
▁элсэн	-9.85323
▁хүнсний	-9.85399
▁Азид	-9.85447
▁төсөл	-9.85453
ха	-9.85504
▁шаардлага	-9.85526
▁w	-9.85542
▁халх	-9.85633
ta	-9.85643
▁дайсны	-9.85655
▁насандаа	-9.85765
▁зарлиг	-9.85787
▁найруулагч	-9.85816
ent	-9.85817
▁алдартнууд	-9.85849
▁Чех	-9.85916
▁Лигийн	-9.85951
▁Су	-9.86016
51	-9.86028
▁аргаар	-9.8603
▁Хууль	-9.86119
▁цомгийн	-9.86274
▁онгоцны	-9.86294
▁цор	-9.86321
Е	-9.8635
▁хаад	-9.86362
▁байгууллагууд	-9.86378
▁Африкийн	-9.86388
▁ихтэй	-9.86416
▁Москвагийн	-9.86433
▁тоогоор	-9.8646
30	-9.86472
▁Түүхэн	-9.86526
▁буруу	-9.86571
▁бололтой	-9.86572
-19	-9.86617
▁ажиллагаагаа	-9.86656
59	-9.86673
▁удам	-9.86763
▁47	-9.86827
56	-9.86849
▁бичигдсэн	-9.86882
▁Александр	-9.86926
▁дипломат	-9.87012
▁хэлбэрээр	-9.87039
▁ажилтан	-9.87047
▁1973	-9.87169
▁захирал	-9.87174
▁Утас	-9.87175
▁Лос	-9.87191
▁Өгэдэй	-9.87211
аймдугаар	-9.87235
ук	-9.87289
би	-9.87313
▁зөвлөлийн	-9.8732
▁багтаж	-9.87353
▁Түшээт	-9.87401
▁ашигтай	-9.87401
▁ширхэг	-9.87415
é	-9.8744
▁цэрэгт	-9.87452
▁өсөлт	-9.87452
▁Гүрж	-9.87491
ine	-9.87524
▁дундад	-9.87536
ул	-9.87666
эс	-9.87707
46	-9.87719
ем	-9.87729
▁Дөрөвдүгээр	-9.87777
▁латин	-9.87786
▁54	-9.87833
▁мэргэн	-9.87925
▁зорилготой	-9.87928
▁1000	-9.87937
ая	-9.87963
▁(17	-9.88101
-16	-9.88104
▁бодлогыг	-9.88111
▁дугуй	-9.88138
▁хувиар	-9.88226
▁баталж	-9.88248
▁Сибирийн	-9.88262
▁ойролцоогоор	-9.88304
ак	-9.88309
▁Аль	-9.88315
▁тулалдаанд	-9.88317
▁од	-9.88357
▁дараалан	-9.88369
▁супер	-9.88381
▁удирдаж	-9.88382
77	-9.88433
▁бор	-9.88443
▁сүүл	-9.88557
▁зүгээс	-9.88649
аръяалал	-9.88658
▁хэсгээр	-9.88686
▁асан	-9.8877
▁e	-9.88796
▁Умар	-9.88807
▁сайдаар	-9.88817
▁морин	-9.88855
▁засаглал	-9.88905
▁ажилд	-9.88988
▁бичнэ	-9.88993
▁бүсийн	-9.88993
▁n	-9.89029
▁технологийн	-9.89033
▁Нидерланд	-9.89061
▁тариалан	-9.89062
ск	-9.89123
▁шинжилгээний	-9.89126
▁дэмжиж	-9.89145
▁давсан	-9.89185
▁телевизийн	-9.89191
▁FIFA	-9.89259
▁41	-9.89263
▁Урт	-9.89282
тын	-9.8929
▁өнгөрсөн	-9.89297
▁Nations	-9.89324
▁боловсруулах	-9.89359
▁Серб	-9.89392
▁гийгүүлэгч	-9.89451
▁Анкара	-9.89498
38	-9.8958
▁хиллэдэг	-9.8961
▁Түүнээс	-9.89615
▁цэвэр	-9.89637
▁ногоон	-9.89675
▁Man	-9.89712
сны	-9.89727
▁Үр	-9.89808
▁26-	-9.89844
▁Израил	-9.89975
66	-9.89991
▁Сайн	-9.90027
68	-9.90119
71	-9.9013
агийн	-9.90137
▁бэлтгэл	-9.9016
▁Хурал	-9.90173
▁Al	-9.9026
▁Хөлбөмбөг	-9.90266
▁Литва	-9.90309
тайгаар	-9.9031
▁хийжээ	-9.90346
▁нэмж	-9.90372
▁уулс	-9.90381
▁хэр	-9.9039
▁шалгарсан	-9.90533
▁1974	-9.9054
▁ДНХ	-9.90594
▁солонгос	-9.90635
te	-9.90727
▁Awards	-9.90763
▁тоглогчид	-9.90766
▁харж	-9.90768
▁Тува	-9.90807
▁дэмжих	-9.90846
▁өрнө	-9.90886
▁Араб	-9.90929
▁Грекийн	-9.90929
ургаадугаар	-9.90997
▁үүднээс	-9.91003
▁Корса	-9.91013
▁амьсгалын	-9.91094
▁1963	-9.91124
▁нэн	-9.91131
▁тогтнож	-9.91157
▁Том	-9.91175
▁бүрдсэн	-9.91177
52	-9.91208
▁хэрэглээ	-9.91267
▁Намын	-9.91302
▁жуулчлал	-9.91338
▁телевиз	-9.9136
▁худалдаанд	-9.91367
▁өнгөтэй	-9.91379
▁Y	-9.91485
▁татан	-9.91496
до	-9.91557
▁64	-9.91607
▁хаяг	-9.91658
▁Швед	-9.91676
▁бодис	-9.91704
▁1948	-9.9176
▁нийлбэр	-9.91786
▁дараалал	-9.91806
▁„	-9.91831
▁Аюулгүй	-9.91834
▁чиг	-9.91837
▁орлогч	-9.91913
▁хөрс	-9.91916
Улаан	-9.91918
лээ	-9.92056
▁ноёдын	-9.92097
▁бүтэн	-9.92101
▁Сөүл	-9.92151
▁өгдөг	-9.92157
▁чанартай	-9.92188
75	-9.92192
▁чиглэлээр	-9.92207
as	-9.92207
▁Мо	-9.9234
Өлгий	-9.92404
▁Азербайжан	-9.92412
▁65	-9.92416
▁оршиж	-9.92418
▁өргөжүүлж	-9.9242
▁аливаа	-9.92427
▁Улсад	-9.92498
▁чинь	-9.92533
ra	-9.92679
▁дэргэд	-9.92733
▁зарласан	-9.92735
▁захирах	-9.92737
▁зарлигаар	-9.9278
▁олонх	-9.92791
▁53	-9.92821
▁Дуу	-9.92846
▁Ливан	-9.92891
▁Буддын	-9.92893
▁Лу	-9.92939
▁Аж	-9.93046
▁түвшин	-9.93049
▁{	-9.93122
▁Милан	-9.93124
са	-9.93147
▁Кот	-9.93206
▁тэрбээр	-9.9321
▁League	-9.93271
ad	-9.93308
▁27-	-9.93383
-11	-9.93402
ийнхээ	-9.93423
▁ген	-9.93432
▁57	-9.9347
▁Муж	-9.93499
▁Сагсан	-9.9353
▁маань	-9.93533
ле	-9.93609
▁Чи	-9.93631
▁Үндэстний	-9.93691
▁нэртэйгээр	-9.93796
49	-9.93848
▁Мэргэжлийн	-9.93851
▁статистик	-9.93851
▁угсаа	-9.93891
▁хэмжээтэй	-9.93917
▁сонгодог	-9.94066
▁хүрэх	-9.94109
▁Ерөнхийлөгчийн	-9.9411
▁цус	-9.94137
▁дундуур	-9.94204
▁Бар	-9.94269
62	-9.94315
▁түгээмэл	-9.94334
▁Шилдэг	-9.94345
▁чиглэл	-9.94514
▁нөхцөлд	-9.94602
▁батлан	-9.94684
▁1958	-9.94783
▁урагш	-9.94786
▁суух	-9.94791
▁олимпын	-9.94808
▁York	-9.94819
▁орныг	-9.94854
▁тээвэр	-9.94857
▁харьцаа	-9.94905
ri	-9.94907
▁төгрөг	-9.94931
▁шийдвэрлэх	-9.94948
▁үсгийн	-9.95096
▁Орост	-9.95118
▁ажиллагаанд	-9.95131
▁хийгдсэн	-9.95146
▁ахлагч	-9.95171
▁оросууд	-9.95206
дүгээр	-9.95296
Их	-9.95307
▁өмнөөс	-9.95331
ne	-9.95357
▁1967	-9.95379
▁район	-9.95393
ers	-9.95453
▁тооцоо	-9.9546
▁Өлзийт	-9.95463
▁NBA	-9.95556
▁дамжуулах	-9.95558
▁нутгаа	-9.95604
▁бичдэг	-9.95636
▁бэлэн	-9.9565
▁аваад	-9.95653
▁яваа	-9.95654
▁үеийг	-9.95673
33	-9.95785
lo	-9.95817
83	-9.95821
хай	-9.95926
▁захиргаанд	-9.95951
▁400	-9.95973
▁UTC	-9.95985
▁технологи	-9.96034
▁бар	-9.96044
▁Хожим	-9.96151
▁1920	-9.96168
95	-9.96216
▁салаа	-9.9629
98	-9.96313
▁Ка	-9.96332
48	-9.96338
▁зөвшөөрч	-9.96455
▁Дундговь	-9.96455
▁Төвд	-9.96469
▁нэрээ	-9.96485
лаарай	-9.96501
▁шатанд	-9.96557
▁(1	-9.9657
▁Е	-9.96577
▁судлаач	-9.96591
▁хөвгүүн	-9.9662
▁татаж	-9.96623
▁ээж	-9.969
▁1937	-9.96942
▁байгууламж	-9.9696
▁хүрэн	-9.96995
▁(°	-9.96999
▁цаашид	-9.97007
ист	-9.97043
▁24-	-9.97052
▁дэглэм	-9.97055
▁тоог	-9.97056
▁батлагдсан	-9.97123
▁гарал	-9.9718
▁тогтнолын	-9.97269
▁тодорхойгүй	-9.97272
▁процесс	-9.97307
▁чадвартай	-9.9731
▁Re	-9.97402
▁хүмүүсийг	-9.9741
▁76	-9.97411
▁Зүүлт	-9.97449
▁гүйцэтгэсэн	-9.97451
▁араб	-9.97493
▁аргагүй	-9.97496
▁далбаа	-9.97526
▁УБ	-9.97596
▁тогтнолоо	-9.976
▁Development	-9.97616
▁аймгийг	-9.97616
▁тэнгэр	-9.97653
▁туршид	-9.97679
▁Байр	-9.9768
▁Sports	-9.97684
▁хэзээ	-9.97713
91	-9.97722
61	-9.97722
▁хиргис	-9.97738
шин	-9.97885
монгол	-9.97953
▁яриа	-9.97975
тэйгээ	-9.98066
▁алдаа	-9.98078
▁ХХК	-9.98103
▁байлдаж	-9.98118
▁буцаж	-9.98119
▁фон	-9.98125
▁150	-9.98177
▁Тай	-9.98186
иг	-9.98194
▁шинжилгээ	-9.98197
▁амжилтыг	-9.98222
65	-9.98231
▁Узбек	-9.98283
фр	-9.98374
▁2009-	-9.98378
ум	-9.98407
▁бэхлэлт	-9.98434
▁Аравдугаа	-9.98471
▁Report	-9.9851
▁дан	-9.98545
▁орчмын	-9.98622
▁75	-9.98645
-18	-9.98659
▁загас	-9.98804
ги	-9.98842
▁монголоор	-9.98846
▁гишүүнээр	-9.98881
▁шалтгаалан	-9.98959
31	-9.98966
▁уулзалт	-9.98969
таа	-9.98974
74	-9.9906
▁Хосе	-9.99074
▁бидний	-9.99122
▁City	-9.99152
▁хөдөлмөрийн	-9.99171
▁огт	-9.99316
▁(13	-9.99386
▁германы	-9.99407
▁нүүр	-9.99485
▁инженер	-9.99518
▁Со	-9.99527
▁зөвлөлтийн	-9.99536
▁бүтээх	-9.9954
▁үндэслэн	-9.99574
уй	-9.99597
▁онооны	-9.99609
▁Сүүлийн	-9.99609
▁зүйлс	-9.99625
▁22-	-9.99654
▁Хатан	-9.9971
▁29-	-9.99722
дах	-9.99764
▁овогт	-9.99811
▁байрлал	-9.99818
▁(16	-9.99832
▁булан	-9.99853
94	-9.99867
▁тойргийн	-9.99925
▁төрийг	-9.99949
▁замд	-9.99963
▁дэвшсэн	-9.99981
▁азот	-9.99984
se	-10.0003
▁des	-10.001
▁Дорноговь	-10.0015
▁парламент	-10.0016
▁станц	-10.002
▁өвчин	-10.0023
▁татах	-10.0024
лав	-10.0026
97	-10.0027
▁суралцаж	-10.0032
▁56	-10.0037
▁Хэдийгээр	-10.0038
▁самбар	-10.0042
▁явдлыг	-10.0044
▁үсгий	-10.0046
▁хүчээ	-10.0051
▁олимпод	-10.0054
▁(2	-10.0057
87	-10.0057
▁зайтай	-10.0062
▁нэгтгэн	-10.0068
▁бүтээлч	-10.0077
▁59	-10.0079
▁үүнд	-10.008
▁Ном	-10.0085
ви	-10.0087
▁1947	-10.0092
▁Нас	-10.0098
▁Хагас	-10.0107
▁угсаатны	-10.0107
▁нэмсэн	-10.0118
▁хэцүү	-10.0119
▁мэдлэг	-10.0119
▁миний	-10.0123
▁58	-10.0128
▁судлах	-10.0128
▁тэмдэглэсэн	-10.0136
▁Мак	-10.0136
▁Цагадайн	-10.0139
▁Са	-10.0142
▁Энх	-10.0144
▁Дорно	-10.0145
Очир	-10.0149
▁өргөгдсөн	-10.0153
▁ц	-10.0153
▁Челси	-10.0156
▁дурсгал	-10.0161
Ч	-10.0169
▁Ай	-10.017
39	-10.0186
▁pp	-10.0193
иологийн	-10.0194
▁механик	-10.0203
▁эрэгт	-10.0204
▁бат	-10.0211
Ф	-10.0212
▁Шөвгийн	-10.0222
▁2.5	-10.0223
▁тамга	-10.0224
▁Тавдугаар	-10.0225
▁1957	-10.0225
▁сонгон	-10.0227
▁цар	-10.0228
▁өвөл	-10.0231
▁бүлэгт	-10.0236
▁эзэлдэг	-10.024
▁уруу	-10.0243
▁1966	-10.025
▁1931	-10.0252
Би	-10.0253
үү	-10.0256
_	-10.0256
▁п	-10.0259
▁Дайны	-10.0266
▁Хүрээ	-10.027
▁хайр	-10.0271
ve	-10.028
▁цэрэгтэй	-10.029
57	-10.029
32	-10.0293
▁байлдаан	-10.0301
▁олгох	-10.0305
▁Ку	-10.0309
ba	-10.031
▁Гурван	-10.0314
▁Эцэг	-10.032
▁1922	-10.0321
▁харуулсан	-10.0332
гоор	-10.0333
▁ДНБ	-10.0334
63	-10.0334
▁удирдан	-10.0334
-10	-10.034
олоодугаар	-10.0342
▁1.6	-10.0342
▁сэргээн	-10.0347
▁тивийн	-10.0351
▁1965	-10.0354
▁Me	-10.0354
▁Ирак	-10.0357
▁Тунадас	-10.0363
▁дэвсгэрийн	-10.0365
[	-10.0365
▁ЗСБНХУ	-10.0365
▁дах	-10.0375
▁сонгуулийн	-10.0384
▁Ян	-10.0385
▁хасаг	-10.0391
un	-10.0399
▁холбогдолтой	-10.0404
▁Шуудан	-10.0405
▁хурц	-10.0406
▁элбэг	-10.0407
хоо	-10.0413
▁байгуулагджээ	-10.0417
▁Эм	-10.0419
▁ОГ	-10.0421
▁болоход	-10.0422
64	-10.0423
▁товч	-10.0424
▁суудал	-10.0428
▁2010).	-10.0428
▁Вьетнам	-10.044
▁Бид	-10.044
▁айл	-10.0448
▁морь	-10.045
▁23-	-10.0452
▁Database	-10.0452
▁Жорж	-10.0456
▁үхэр	-10.0458
>	-10.0466
&	-10.0466
ынхаа	-10.0467
▁хямрал	-10.0469
li	-10.0474
▁Индонез	-10.0476
ох	-10.0478
▁Human	-10.0483
▁физик	-10.0485
▁дүүргийн	-10.049
·	-10.049
▁тусдаа	-10.05
Овоо	-10.0501
▁компаниуд	-10.0503
▁өвлийн	-10.0507
▁FW	-10.051
34	-10.0515
лөн	-10.0515
▁төрөлд	-10.0517
▁тайш	-10.0521
▁Ки	-10.0524
69	-10.0526
▁талбайд	-10.0527
▁мөсөн	-10.053
▁Боловсрол	-10.0534
▁3.0	-10.0535
▁хөрш	-10.054
▁Стамбул	-10.0542
org	-10.0542
▁банкны	-10.0559
▁сийрэг	-10.056
▁нэгдмэл	-10.056
▁явдлы	-10.0566
ья	-10.0568
54	-10.057
▁шингэн	-10.0582
37	-10.0583
▁Санкт	-10.0583
▁XX	-10.0589
▁Вэй	-10.0592
▁дарж	-10.0596
▁гараагаа	-10.0597
93	-10.0613
▁4.3	-10.0616
▁Хуан	-10.062
▁эсийн	-10.0629
73	-10.0632
▁буддын	-10.0632
▁агуулсан	-10.0633
▁ахлах	-10.0636
ter	-10.064
эг	-10.064
лаж	-10.0645
▁бүтээгдэхүүний	-10.0649
▁түүнчлэн	-10.0651
тар	-10.0653
мо	-10.0656
▁бэ	-10.0664
▁яс	-10.0665
▁1938	-10.0665
▁командлагч	-10.0667
▁DOI	-10.0669
▁уулархаг	-10.0669
ang	-10.0673
▁байдалтай	-10.0673
▁Ирланд	-10.0674
go	-10.0675
▁галиг	-10.0685
ha	-10.0686
▁1977	-10.0689
▁Египет	-10.069
id	-10.0697
▁хэрэм	-10.0706
▁толгойн	-10.071
▁тоглох	-10.0716
▁h	-10.0723
▁Гэрэл	-10.0724
▁үйлдвэрлэсэн	-10.0725
▁$	-10.0728
▁ханлиг	-10.073
▁барсны	-10.073
Улс	-10.0732
▁довтлогч	-10.0736
▁Ер	-10.0737
▁улсаа	-10.0738
▁бичгийг	-10.0742
▁үйлдвэрлэж	-10.0743
▁Cup	-10.0746
▁боомт	-10.0748
▁Le	-10.075
▁нутагтаа	-10.0756
▁Румын	-10.0761
▁үүсэх	-10.0762
▁News	-10.0764
▁энерги	-10.0774
-17	-10.0775
92	-10.0779
▁шидэлт	-10.0783
▁хэлнэ	-10.0784
▁Korea	-10.0797
▁ш	-10.0798
▁нүүж	-10.08
▁Григорий	-10.0807
▁тогтоол	-10.0811
▁2015-	-10.0811
▁авав	-10.0818
▁танилцуулга	-10.0822
▁123	-10.0824
▁төржээ	-10.0824
▁85	-10.0826
▁МЭ	-10.083
▁Мон	-10.0836
▁аав	-10.0838
▁Premier	-10.0839
▁Дунд	-10.0839
сний	-10.0839
▁Бу	-10.084
▁гэрээнд	-10.0845
▁унаа	-10.0846
▁дүгнэлт	-10.0848
▁хад	-10.0852
▁нэмэр	-10.0853
▁түвшний	-10.0853
▁Сүлд	-10.0853
▁эргийн	-10.0854
▁герман	-10.0856
▁David	-10.0857
▁тулаанд	-10.0867
▁Арабын	-10.0871
23	-10.0872
Ажил	-10.0872
▁алдаршсан	-10.0873
▁орой	-10.0873
▁сонгуульд	-10.0876
аагүй	-10.0876
▁гэрийн	-10.088
▁68	-10.088
▁John	-10.0881
гү	-10.0883
▁байсны	-10.0885
▁амьтны	-10.0891
▁талаарх	-10.0893
▁аваргын	-10.0898
▁Исламын	-10.0898
тайгаа	-10.0907
▁зөвшөөрсөн	-10.0909
▁Нидерландын	-10.0909
▁мэдэж	-10.0909
▁сууц	-10.0918
50	-10.0918
▁1955	-10.0919
os	-10.0921
▁орлого	-10.0926
жав	-10.0927
▁баталсан	-10.0928
▁есөн	-10.0928
▁Өргөн	-10.0929
▁төгөлдөр	-10.0929
▁илгээж	-10.093
▁цөл	-10.0931
▁Карл	-10.0931
▁Майкл	-10.0933
▁Statistics	-10.0935
▁Co	-10.0935
▁домог	-10.0937
▁бүлийн	-10.0943
▁тонн	-10.0944
▁түвшнээс	-10.0947
▁зориулан	-10.0947
▁тавих	-10.0953
▁Бас	-10.0958
▁хөрөнгийн	-10.0965
▁\	-10.0967
▁далайд	-10.0967
▁англ	-10.0968
▁сургуулийг	-10.0969
▁тэмцэх	-10.0969
▁арай	-10.0973
▁Гэсэ	-10.0974
▁устгах	-10.0975
▁оюун	-10.0978
▁голдуу	-10.0987
тал	-10.0988
уул	-10.0995
▁дуустал	-10.1003
▁по	-10.1004
уур	-10.1005
rufe	-10.1013
▁бүрдүүлж	-10.1014
▁маяг	-10.1016
▁мах	-10.1019
▁Тоглогч	-10.102
▁үүсвэр	-10.102
▁Ан	-10.1027
▁an	-10.1028
▁Сарын	-10.1029
▁Чойбалсан	-10.1031
▁шавь	-10.1033
▁нэгтгэх	-10.1041
40	-10.1048
ian	-10.1048
Ө	-10.1053
эй	-10.1058
гар	-10.106
▁Internet	-10.1062
▁газраар	-10.1062
▁r	-10.1064
▁Зуны	-10.1071
▁1942	-10.1075
▁зааг	-10.1075
ma	-10.1079
▁хэрэглэгддэг	-10.108
▁музей	-10.1091
▁олны	-10.1093
▁тайван	-10.1098
▁Тунис	-10.11
▁уламжлал	-10.1101
▁бүсэд	-10.1106
%-	-10.1107
▁авто	-10.1113
▁хаалга	-10.1113
Хятад	-10.1115
▁ёслол	-10.1118
▁явуулдаг	-10.1119
▁өөд	-10.1122
79	-10.1122
баатар	-10.1125
ут	-10.1129
▁бөмбөгчин	-10.113
▁Be	-10.1134
▁То	-10.114
▁(12	-10.114
▁Кино	-10.1143
▁(2009)	-10.1151
бал	-10.1155
▁хамаарна	-10.1156
өр	-10.1177
▁▲	-10.1179
▁хүчил	-10.1185
▁дуудлага	-10.1188
▁сангийн	-10.1193
▁эзэмшил	-10.1194
▁даруй	-10.1194
▁Жо	-10.1195
▁амин	-10.1195
▁Измир	-10.1198
▁өдгөө	-10.1202
▁эрин	-10.1204
▁Хөдөлмөр	-10.1204
45	-10.1211
▁бурхан	-10.1216
▁дийлэнх	-10.1217
▁хойно	-10.1226
▁засагт	-10.1226
▁дайралт	-10.1227
ек	-10.1233
▁асуудлаар	-10.1238
▁be	-10.1245
▁сүүлээр	-10.1247
▁Өөр	-10.1252
▁алджээ	-10.1253
uk	-10.1254
▁хаадын	-10.1256
▁Кидан	-10.1257
▁үгэнд	-10.1258
▁даралт	-10.1265
▁металл	-10.1268
▁доллар	-10.1271
▁State	-10.1271
▁хүссэн	-10.1271
▁байгуулагдав	-10.1272
ээсээ	-10.1272
тэйгээр	-10.1272
▁Сургууль	-10.1272
▁Ре	-10.1272
▁1930	-10.1277
▁Вашингтон	-10.1282
▁1917	-10.1284
▁Байгууллагын	-10.1293
ies	-10.1298
▁хамгаалалт	-10.1299
▁1913	-10.1306
▁An	-10.1309
▁хүргэж	-10.1314
чих	-10.1315
▁Сайд	-10.1317
88	-10.1322
▁Социалист	-10.133
▁Кайсери	-10.1334
»-	-10.1336
чуудын	-10.1336
41	-10.1337
▁хэвлэлийн	-10.1346
ана	-10.1348
▁De	-10.1349
▁зарчим	-10.1349
ре	-10.1349
▁тусламжтайгаар	-10.135
▁сүмийн	-10.1351
ио	-10.1353
▁Батцэнгэл	-10.1353
gov	-10.1353
81	-10.1365
▁1923	-10.1366
▁Марк	-10.1367
▁Нягт	-10.1368
▁автономит	-10.1371
лу	-10.1373
▁Манжуур	-10.1373
▁1933	-10.1374
▁түүхий	-10.1378
▁э	-10.1378
▁судлалын	-10.1379
▁о	-10.1379
▁ялж	-10.1388
-3	-10.1388
▁мэнд	-10.139
Я	-10.139
▁бүтээлчид	-10.1394
▁Феррари	-10.1398
▁Мэндэлсэн	-10.1408
▁тоглоом	-10.141
▁хадгалах	-10.1411
те	-10.1411
▁тогтоожээ	-10.1412
70	-10.1413
▁өөрийнхөө	-10.1414
вар	-10.1415
▁болсноор	-10.1417
▁шилжин	-10.1427
▁шөнө	-10.1434
▁63	-10.1435
07-	-10.1437
▁Байгалийн	-10.1445
от	-10.1447
вэл	-10.1457
изм	-10.1468
▁зурсан	-10.1468
▁Ху	-10.1484
▁наймаа	-10.1485
‡	-10.1487
▁бүтсэн	-10.1487
-13	-10.1487
▁үйлдлийн	-10.1489
▁Park	-10.1491
Z	-10.1495
өл	-10.1496
▁Ихэнх	-10.1498
▁улсынхаа	-10.1505
▁олгосон	-10.1507
▁тэмдэглэл	-10.1508
▁la	-10.1515
▁багаас	-10.1517
▁хэргэм	-10.1527
▁социалист	-10.153
▁Енисей	-10.1536
▁дээгүүр	-10.1547
Нийгмийн	-10.1549
▁дархан	-10.1552
▁үндсэндээ	-10.1556
▁байгуулагч	-10.1564
▁Өрнө	-10.1566
▁120	-10.1566
▁гаргадаг	-10.1568
▁явдаг	-10.1571
▁хэлэнд	-10.1571
▁#	-10.1579
–16	-10.1583
▁бодож	-10.1587
▁соронзон	-10.159
▁мөнгөний	-10.1594
▁Голланд	-10.1594
▁6.1	-10.1596
▁нээлттэй	-10.1597
▁хүргэсэн	-10.1607
▁өсч	-10.1612
ist	-10.1612
дорж	-10.1613
▁албаны	-10.1616
▁чанарыг	-10.1616
82	-10.1619
▁гэрээг	-10.1622
▁дараагаар	-10.1627
▁я	-10.163
▁Атлантын	-10.1632
▁Тайлбар	-10.1633
▁олох	-10.1642
-15	-10.165
▁журам	-10.1654
▁Нийслэлийн	-10.1657
▁эргэж	-10.1662
▁хичээл	-10.1662
▁үйлчилгээний	-10.1663
▁шилжих	-10.1667
▁нийлж	-10.1668
0:45	-10.167
▁1953	-10.167
ё	-10.1672
▁төрж	-10.1673
▁мэтээр	-10.1673
▁81	-10.1677
▁██	-10.1687
▁явган	-10.1687
▁булш	-10.1688
▁Сяньби	-10.169
▁хэсгүүд	-10.17
▁нөлөөлсөн	-10.1707
▁харьцуулахад	-10.1709
▁япон	-10.1709
▁1943	-10.171
▁өөрчлөн	-10.1712
▁1952	-10.1712
▁талдаа	-10.1713
▁усанд	-10.1713
▁гэрээгээр	-10.1721
оль	-10.1724
өг	-10.1725
жү	-10.1727
▁өссөн	-10.1728
▁чиглэлд	-10.1728
лагдсан	-10.1729
▁зохицуулах	-10.1729
▁Физик	-10.1733
▁НТӨ	-10.1741
▁алдаж	-10.1743
▁1918	-10.1747
нь	-10.1749
Аймгийн	-10.1758
▁нисгэгч	-10.1767
▁тэжээл	-10.1772
▁санааг	-10.1778
▁найм	-10.1779
▁ялагдал	-10.1793
жа	-10.1796
▁шу	-10.1799
▁дуртай	-10.1808
▁шалгарч	-10.1813
▁Мал	-10.1814
▁бай	-10.1819
▁Сэцэн	-10.182
▁Ариун	-10.1822
Орос	-10.1827
▁үүсэл	-10.1827
▁илгээсэн	-10.183
▁тэргүүлсэн	-10.183
▁хэлэх	-10.183
▁үзнэ	-10.183
▁Сири	-10.183
▁Зам	-10.1831
▁хээрийн	-10.1834
▁Мюнхен	-10.1836
▁Оросууд	-10.1837
▁Киргиз	-10.1837
▁суурий	-10.184
▁хялбар	-10.1843
▁системийг	-10.1846
na	-10.1849
▁нэмэгдэж	-10.185
▁Амьтан	-10.1851
▁g	-10.1852
▁зөвлөх	-10.1852
ti	-10.1863
ko	-10.1864
up	-10.1864
▁Зүүнгар	-10.187
03	-10.1874
▁ангид	-10.1885
▁маргаан	-10.1888
Ивуар	-10.1891
▁1919	-10.1892
▁Хур	-10.1897
me	-10.1904
уудаас	-10.1904
▁шан	-10.1908
▁ая	-10.1919
Герман	-10.192
▁удирдлагын	-10.1922
▁органик	-10.1933
ce	-10.1933
▁атомын	-10.1942
▁орчны	-10.1946
▁Ган	-10.1947
▁үүсгэх	-10.1948
▁000	-10.1951
▁олгодог	-10.1954
▁Тийм	-10.1955
жилт	-10.1956
джээ	-10.1956
▁одоогоор	-10.1957
▁ярьж	-10.1959
▁нэмэгдүүлэх	-10.1959
▁Кар	-10.196
▁96	-10.196
▁хэлтэс	-10.1969
▁74	-10.197
si	-10.1971
ity	-10.1974
▁Жеймс	-10.1974
▁Өдгөө	-10.1977
▁туг	-10.1987
▁Пакистан	-10.1999
▁намар	-10.2
▁Дани	-10.2001
▁Цахар	-10.2002
▁Жа	-10.2002
лер	-10.2009
ве	-10.202
▁хоорондох	-10.202
▁бизнес	-10.2021
▁ялсан	-10.2022
▁холбоотон	-10.2022
▁парламентын	-10.2027
▁82	-10.2035
▁Владимир	-10.2036
▁хүрээний	-10.2037
▁Оскар	-10.2037
▁нягтрал	-10.2038
▁хамаарч	-10.2038
▁сайжруулах	-10.2039
▁у	-10.2042
▁Ангол	-10.2052
▁ялагдсан	-10.2056
▁Спорт	-10.206
▁дуулсан	-10.2064
▁нэгдэж	-10.2064
▁1935	-10.2067
гэ	-10.2067
▁өрсөлдөгч	-10.2068
.000	-10.2072
▁эрхлэх	-10.2079
▁хийхэд	-10.2081
▁ашиглалта	-10.2081
▁өвөр	-10.2082
36	-10.209
БНХАУ	-10.2093
▁7.1	-10.2096
▁японы	-10.2097
снаар	-10.2099
▁зуу	-10.21
▁Ус	-10.2101
▁хуульд	-10.2102
▁нэгтгэж	-10.2104
▁кирилл	-10.2106
▁хав	-10.2108
дар	-10.2115
▁You	-10.2119
▁МУ	-10.2121
▁...	-10.2124
▁хүснэгт	-10.2127
sh	-10.2127
▁стратегийн	-10.213
▁(3)	-10.2133
Хятадын	-10.2136
▁багуудын	-10.2137
▁Шальке	-10.2139
▁5.2	-10.214
тэн	-10.214
▁(15	-10.2141
▁даргын	-10.2143
▁үгс	-10.2144
▁Японд	-10.2147
▁На	-10.2154
▁хүүхдүүд	-10.2154
▁Рико	-10.2155
бер	-10.2161
▁хэсгээс	-10.2164
▁нислэг	-10.2172
53	-10.2176
▁Лиг	-10.2179
инг	-10.2182
▁олдсон	-10.2185
▁өглөө	-10.2185
▁1925	-10.2193
▁уурхай	-10.2196
▁хаалт	-10.2198
▁үзэсгэлэн	-10.2201
▁шүтлэг	-10.2203
▁хамгаалж	-10.2204
▁London	-10.2213
▁тоонд	-10.2219
▁31-	-10.2222
▁цомд	-10.2227
▁биеэ	-10.2229
▁Гоол	-10.2234
▁жагсаал	-10.2234
руу	-10.2236
▁бүтээлийн	-10.2242
ge	-10.2247
▁Мерседес	-10.2253
▁1954	-10.2254
▁сонгох	-10.2259
▁Усны	-10.2266
Бат	-10.2266
за	-10.2267
▁Ин	-10.2267
▁зар	-10.2268
лсан	-10.2272
▁хэлбэрийн	-10.228
▁морьт	-10.2281
▁хэрэгжүүлж	-10.2283
▁Бельги	-10.2288
ент	-10.2291
▁(2011)	-10.2293
▁Вант	-10.2295
▁дундаас	-10.2298
▁62	-10.2301
▁вирус	-10.2303
▁хэлдэг	-10.2308
▁06	-10.231
▁байрлаж	-10.2317
▁зогсоох	-10.232
▁Хо	-10.2321
▁Эрэгтэй	-10.2324
Координат	-10.2334
▁төрх	-10.2337
▁хуваан	-10.2344
▁ноёны	-10.2363
▁оросоор	-10.2367
▁Засагт	-10.2367
▁зориулалттай	-10.2371
▁мөргөлдөөн	-10.2374
▁1926	-10.2375
▁Тусгаар	-10.2378
дин	-10.2382
бай	-10.2383
▁үүсэн	-10.2383
▁өөрчилж	-10.2384
▁95	-10.2386
▁дурдсан	-10.2387
▁АХ	-10.2387
хэ	-10.2388
▁хийц	-10.2389
▁гэдгээ	-10.239
▁тогтоолоор	-10.2408
жих	-10.2409
▁баян	-10.2415
▁амьсгалтай	-10.2415
▁бичжээ	-10.2423
▁Ром	-10.2423
76	-10.2431
▁хуур	-10.2435
▁1934	-10.2441
▁явагдаж	-10.2443
▁k	-10.2444
▁ашигласан	-10.2445
▁бодол	-10.2445
ский	-10.2448
▁чөлөөний	-10.2449
▁China	-10.2453
▁72	-10.2455
▁хүмүүст	-10.2456
▁тодорхойлох	-10.2466
▁эрхэнд	-10.2469
▁даваанд	-10.247
▁Сайхан	-10.2471
son	-10.2475
▁Love	-10.2482
▁Польшийн	-10.2483
▁тутамд	-10.2486
▁тооцогддог	-10.2487
▁агуулдаг	-10.2488
▁системд	-10.2488
▁Парк	-10.2489
▁Даян	-10.2495
▁Ле	-10.2496
▁тагнуулын	-10.2503
гал	-10.2504
▁гүйцэтгэдэг	-10.2509
▁болгодог	-10.2509
▁нээсэн	-10.2509
▁1944	-10.251
▁судлал	-10.252
▁Солбицол	-10.2521
▁суугч	-10.2524
▁хуулиар	-10.2524
▁(14	-10.2526
no	-10.2529
▁сонирхолтой	-10.2532
▁хэрэглэсэн	-10.2533
▁дагуул	-10.2535
▁бөхчүүд	-10.2536
▁Official	-10.2542
▁73	-10.2543
▁Бо	-10.2544
гоос	-10.2544
▁өр	-10.2548
▁сонгож	-10.2548
▁үйлдвэрлэх	-10.2549
Анжелес	-10.2551
▁төгрөгийн	-10.2551
▁тулалдаж	-10.2554
▁Жей	-10.2555
▁довтлох	-10.2557
▁барилдааны	-10.2562
▁ажлаа	-10.2565
▁Чикаго	-10.2568
ho	-10.2569
▁re	-10.257
▁шинэчлэл	-10.2573
▁хөдөлгөөний	-10.2575
▁багтана	-10.2581
луулсан	-10.2581
42	-10.2586
исп	-10.2586
la	-10.2586
ung	-10.2592
▁Ту	-10.2592
▁файл	-10.2594
▁бүхэн	-10.2594
▁коронавирус	-10.2597
▁ЮНЕСКО	-10.2598
▁хэлтэй	-10.2598
▁88	-10.2601
▁алдар	-10.2604
члэн	-10.2606
▁Хөрс	-10.2619
▁хавар	-10.2622
▁хуваагдана	-10.2623
▁Арсенал	-10.2628
▁Хужирт	-10.2628
лал	-10.2632
▁баавгай	-10.2634
▁байхыг	-10.2637
▁дуунууд	-10.2638
▁хэлнээс	-10.264
▁да	-10.2641
▁хиймэл	-10.2642
▁үнэтэй	-10.2648
уулах	-10.2652
▁молекул	-10.2656
Улсын	-10.2656
▁хэвийн	-10.2659
▁(2006)	-10.2667
▁орчинд	-10.2672
дэн	-10.2675
▁гэгээн	-10.2678
▁Словени	-10.2678
ков	-10.2684
▁гэгдэх	-10.2686
▁баярууд	-10.2692
үй	-10.2692
▁FC	-10.2693
▁хотгор	-10.2694
▁Доод	-10.2697
чдын	-10.2698
гийг	-10.2702
▁сэргээх	-10.2702
▁IV	-10.2702
Англи	-10.2705
▁шигшээн	-10.2706
АНУ	-10.2709
па	-10.2722
▁хүргэх	-10.2722
хот	-10.2723
▁настайдаа	-10.2728
▁тив	-10.2729
▁тогт	-10.2733
▁ширүүн	-10.2734
Петербург	-10.2742
▁доош	-10.2745
▁фронтын	-10.2748
▁чөлөөтэй	-10.2749
▁адуу	-10.2749
ion	-10.2749
▁доктор	-10.2751
British	-10.2754
▁үлджээ	-10.2755
▁яаж	-10.2755
▁1990-	-10.2761
▁электрон	-10.2768
▁цогцолбор	-10.2774
▁малтмал	-10.2776
▁сэргийлэх	-10.2776
▁үйлдэл	-10.278
▁илэрч	-10.2781
▁(2004)	-10.2791
▁84	-10.2792
▁Барон	-10.2792
бу	-10.2792
▁Буянт	-10.2804
▁Хүннүгийн	-10.2806
▁үүсч	-10.2808
▁дэвсгэрт	-10.2818
▁оролдлого	-10.2823
▁хүчинд	-10.2823
ry	-10.2825
▁заавал	-10.2827
▁тосгон	-10.2831
▁багатай	-10.2833
▁зураач	-10.2837
▁оролцдог	-10.2844
▁Анги	-10.2861
▁Ha	-10.2864
▁бүртгэгдсэн	-10.2866
▁алхам	-10.2866
▁Хил	-10.2875
▁тэнцүү	-10.2876
ок	-10.2876
▁франц	-10.2885
тунадасны	-10.289
▁ярьдаг	-10.289
▁арьс	-10.2894
вер	-10.2894
▁Шилийн	-10.2894
▁al	-10.2895
гай	-10.2896
▁ТХ	-10.2902
▁Гэгээн	-10.2908
▁дагаж	-10.2912
▁армийг	-10.2913
▁Христийн	-10.2919
▁түүхийг	-10.2919
▁Бостон	-10.292
4-	-10.2928
▁Пол	-10.293
▁хувилбарууд	-10.2935
▁өөрөөр	-10.2935
▁Ба	-10.2935
▁(2012)	-10.2939
ху	-10.2939
ович	-10.2939
net	-10.2948
▁эхлэх	-10.2956
▁Хотспур	-10.2958
▁протокол	-10.2958
Испани	-10.2959
▁байхаар	-10.2971
ласан	-10.2973
▁төгс	-10.2973
▁l	-10.2976
▁жинтэй	-10.2978
▁78	-10.2979
▁үлдэгдэл	-10.2981
▁буулган	-10.2981
▁ялгаа	-10.2984
▁тооллог	-10.2989
▁Top	-10.299
▁тосны	-10.2992
▁үзүүр	-10.2992
am	-10.2998
▁насанд	-10.3002
мал	-10.3004
ut	-10.3009
▁сургалт	-10.3012
▁магадгүй	-10.3017
▁хангалттай	-10.3029
▁1951	-10.3029
▁Уул	-10.303
▁багтаа	-10.3031
ён	-10.3032
мон	-10.3041
do	-10.3042
▁Тоттенхэм	-10.3049
▁Шүүх	-10.305
▁байсаар	-10.3051
▁Ингэж	-10.3052
ac	-10.3053
зи	-10.3053
▁Хуучин	-10.3054
▁тэргүүлж	-10.3057
▁Уругвай	-10.3057
▁өндөрт	-10.3058
бат	-10.306
рон	-10.3064
рал	-10.3066
▁1.7	-10.3067
ten	-10.3067
▁дагавар	-10.3073
▁жимс	-10.3076
▁дэг	-10.308
▁төлбөр	-10.308
▁ФИФА	-10.3082
▁оруулалт	-10.3082
▁населения	-10.3096
▁өгөгдлийн	-10.3096
▁түргэн	-10.3097
▁Чөлөөт	-10.3098
▁урьдчилан	-10.3099
мер	-10.3102
▁гүүр	-10.3106
▁загварыг	-10.311
▁багтах	-10.311
ша	-10.3114
▁хязгаарын	-10.3131
▁ай	-10.3131
▁All	-10.3131
▁Шинжлэ	-10.3134
▁иргэдийг	-10.314
▁Нөгөө	-10.3146
ив	-10.315
вин	-10.3155
дон	-10.3164
▁боть	-10.3167
▁хамааран	-10.3167
▁төлөвлөгөө	-10.3172
эт	-10.3175
▁үзэхэд	-10.3175
▁Иймд	-10.3177
om	-10.3181
▁харьяанд	-10.3187
▁суурилсан	-10.319
төмөр	-10.3193
▁хувааж	-10.3196
▁байгуулалтын	-10.3197
▁судалж	-10.3211
▁нөлөөгөөр	-10.3228
дсан	-10.3229
▁тоон	-10.3231
▁дэс	-10.3231
▁Үзүүлэлт	-10.3235
▁эл	-10.3237
▁авчирсан	-10.3237
▁ачаа	-10.3239
▁аюултай	-10.324
▁Зургий	-10.3241
▁хараа	-10.3249
▁Юн	-10.325
▁тэргүүний	-10.3253
▁вэбсайт	-10.3261
▁удирдуулсан	-10.3261
▁Хөхнуур	-10.3261
▁цохиж	-10.3261
▁2008-	-10.3264
▁Тэдгээр	-10.3265
▁ул	-10.3271
▁ав	-10.3272
лэж	-10.3274
▁маршал	-10.3275
мар	-10.3275
▁To	-10.3276
▁Ижил	-10.3277
nd	-10.3278
▁орноо	-10.3281
▁чаддаг	-10.3281
▁Inc	-10.3284
▁Үйлдвэрлэсэн	-10.3284
▁өндөртэй	-10.3287
▁Евро	-10.3289
▁Берлин	-10.329
▁модон	-10.3291
▁зааж	-10.3292
▁мөнх	-10.3293
▁ган	-10.3297
▁нэгжүүд	-10.3298
▁Сон	-10.3301
▁Тэгээ	-10.3308
▁газраа	-10.3313
дуу	-10.3315
ng	-10.3315
со	-10.3317
▁тодорхойлж	-10.332
▁69	-10.332
▁уурхайн	-10.3326
▁(2003)	-10.333
▁чанарын	-10.333
▁чуулганы	-10.3331
▁Хим	-10.3336
▁Хархорин	-10.3337
дөг	-10.3342
▁77	-10.3342
▁яваад	-10.3344
72	-10.3345
одоогийн	-10.3346
▁өртөө	-10.3347
▁уралдааны	-10.3347
▁шинжтэй	-10.335
▁сурах	-10.3352
▁нийтлэг	-10.3355
▁Journal	-10.3356
▁засгийг	-10.3356
▁ТӨР	-10.3356
▁суурьшсан	-10.3356
лэсэн	-10.3357
▁Дээрх	-10.3365
▁сингл	-10.3369
▁Гар	-10.3379
▁ГАЗАР	-10.338
▁хараат	-10.338
гэн	-10.338
▁харгалзан	-10.3382
▁Москвад	-10.3383
▁Бугат	-10.3391
2-	-10.3392
da	-10.3393
ари	-10.3395
-03	-10.3401
▁Сар	-10.3401
▁ислам	-10.3404
▁диаграмм	-10.3404
сар	-10.3405
▁Арг	-10.341
▁Windows	-10.3412
▁судалгаагаар	-10.3417
▁Хүлэгү	-10.3418
▁67	-10.342
оп	-10.3421
▁Сибирь	-10.3428
▁заримдаа	-10.3428
▁найрагч	-10.3428
▁үзэгдэл	-10.3428
▁хангаж	-10.3429
▁эсэргүүцэн	-10.3431
▁ангиуд	-10.3433
▁хамгаалагчаар	-10.3434
▁ер	-10.3435
▁Ор	-10.3442
▁татар	-10.3445
▁Урлагийн	-10.3446
▁боловсруулж	-10.3446
▁багц	-10.3447
▁хонь	-10.3453
▁(2007)	-10.3456
▁Словак	-10.3458
▁тэмдэгт	-10.3459
▁даа	-10.346
▁3.5	-10.3461
▁зориулж	-10.3463
▁өрнөд	-10.3464
▁цацраг	-10.3466
▁зурвас	-10.347
▁чөлөө	-10.3475
▁Христ	-10.3476
▁долдугаар	-10.3476
гоо	-10.3478
▁Донецк	-10.3479
▁болсны	-10.348
▁Шашин	-10.3481
▁Бен	-10.3483
▁дүрийг	-10.3483
▁арын	-10.3486
үүл	-10.3499
▁61	-10.3502
▁шалгах	-10.3515
▁Q	-10.3518
á	-10.352
▁цэцэг	-10.3521
▁буриадууд	-10.3523
▁Нирун	-10.3525
▁Хяргас	-10.3525
▁хамарсан	-10.3526
▁тогтнолыг	-10.353
▁бүтээж	-10.3533
▁Афганистан	-10.3533
▁батлах	-10.3534
▁суваг	-10.3537
они	-10.3539
pe	-10.354
уд	-10.3541
▁бүтцийн	-10.3549
▁Office	-10.3549
▁Йордан	-10.3549
▁y	-10.3553
-4	-10.3554
0′′	-10.3556
ту	-10.3561
▁солилцоо	-10.3562
▁харуул	-10.3564
▁мэддэг	-10.3564
▁нүд	-10.3566
▁Ca	-10.3569
▁суугчтай	-10.357
▁хуралд	-10.3573
▁По	-10.3573
▁төвлөрсөн	-10.3573
▁Пуэрто	-10.3574
▁Томас	-10.3575
1112	-10.3578
▁года	-10.358
шил	-10.3583
▁Өнөөдөр	-10.3584
▁Ирландын	-10.3586
▁Ман	-10.3587
▁суртал	-10.3587
▁зүгийн	-10.3593
ник	-10.3593
▁баримтууд	-10.3602
▁жагсаалтад	-10.3604
▁талыг	-10.3605
▁багаж	-10.3608
ell	-10.3608
▁тодорхойлолт	-10.361
▁бүрд	-10.3618
▁үйлдвэрлэгч	-10.362
▁Улсыг	-10.3626
▁хөвүүн	-10.3627
▁Хамаг	-10.3627
▁ядуу	-10.3631
▁эрчимтэй	-10.3634
▁тэргүүлэгч	-10.3634
чүүд	-10.3634
▁нутаглаж	-10.3634
ип	-10.3637
▁унших	-10.3637
▁зохиогдсон	-10.3647
см	-10.3653
▁нээж	-10.3655
▁бүтээгч	-10.3656
▁Бельгий	-10.3656
▁тойрогт	-10.3657
▁3000	-10.3661
3)	-10.3664
▁Ми	-10.3671
▁эзлэгдсэн	-10.3672
оороо	-10.3672
▁үнэхээр	-10.3672
▁баригдсан	-10.3672
▁Европт	-10.3672
▁тэнгист	-10.3673
▁Census	-10.3675
уу	-10.3678
▁үлгэр	-10.3683
▁шашныг	-10.3686
▁хамгаалалтын	-10.3687
▁төвөөс	-10.3696
▁амьтад	-10.3696
▁(2005)	-10.3698
▁зэрэгт	-10.3701
▁санах	-10.3702
▁зарлан	-10.3704
▁ойлгож	-10.3705
▁Тайланд	-10.3705
▁танхимын	-10.3711
▁дундаа	-10.3712
▁сүлжээний	-10.3712
▁мэдэгдсэн	-10.3713
▁суугаа	-10.3717
▁үүсгэдэг	-10.3721
▁Factbook	-10.3721
▁Ургамал	-10.3721
au	-10.3722
▁бэлэг	-10.3722
алт	-10.3727
▁зохих	-10.3731
▁булаан	-10.3731
▁Шиньжян	-10.3732
▁2014)	-10.3735
ӨГЧ	-10.3746
▁холимог	-10.3746
▁Gaon	-10.3746
ланд	-10.3748
▁татварын	-10.3751
▁театр	-10.3753
ью	-10.3757
▁87	-10.376
▁танкийн	-10.3762
герм	-10.3764
ig	-10.3764
▁71	-10.3766
▁хүнс	-10.3769
▁Угтуул	-10.377
▁тоглоход	-10.3773
▁тасралтгүй	-10.3777
▁шоу	-10.3779
▁өвс	-10.3783
▁байдаггүй	-10.3784
ду	-10.3784
▁1928	-10.3787
▁продюсер	-10.3789
▁зэс	-10.3791
▁үс	-10.3791
▁НАС	-10.3795
ед	-10.3797
▁Алс	-10.3797
▁нэвтрүүлэг	-10.3798
▁Онцлох	-10.3802
▁нэрлэгдсэн	-10.3803
▁(2)	-10.3805
▁Коммунист	-10.3807
уз	-10.3811
▁Финланд	-10.3815
▁нум	-10.3817
▁Жаргалант	-10.3818
ку	-10.382
▁хүртжээ	-10.3821
▁тодорхойлсон	-10.3821
▁James	-10.3826
▁ши	-10.3829
▁хориг	-10.383
▁ялгах	-10.3831
▁голд	-10.3833
▁устгаж	-10.3846
▁Тангуд	-10.3849
▁зорилт	-10.3852
▁төмрийн	-10.3853
▁Group	-10.3856
▁хээр	-10.3857
▁ууланд	-10.3858
▁Статистик	-10.3871
8910	-10.3871
▁цайз	-10.3871
▁эвсэл	-10.3872
▁Mongolia	-10.3874
▁за	-10.3884
67	-10.3884
▁Billboard	-10.3886
▁одды	-10.3887
▁Мандал	-10.3887
▁гудамж	-10.3891
em	-10.3892
▁Гал	-10.3893
▁судар	-10.3895
▁профессор	-10.3896
▁элсэж	-10.3896
▁үзүүрлэж	-10.3896
НОО	-10.3898
▁харилцааг	-10.3899
▁намтар	-10.3899
▁2011)	-10.3901
рч	-10.3906
▁дүрд	-10.3907
4567	-10.391
гу	-10.3916
▁Indonesia	-10.3917
▁Corporation	-10.3921
рах	-10.3923
▁512	-10.3923
лтын	-10.3926
▁Хятан	-10.3926
▁хатны	-10.3926
-14	-10.3927
▁Дэ	-10.3931
мм	-10.3933
▁үгнээс	-10.3935
▁6.2	-10.3938
▁Га	-10.3943
▁Австр	-10.3945
▁шүлэг	-10.3946
▁язгуур	-10.3947
▁Рено	-10.3951
лагч	-10.3951
му	-10.3953
▁дөнгөж	-10.3954
▁дотроос	-10.3954
▁фунт	-10.3954
▁Mo	-10.3961
▁Пи	-10.3966
▁утас	-10.3966
▁төслий	-10.397
▁тэмцэж	-10.3972
▁нэрлэгдэх	-10.3974
▁цагаас	-10.3978
▁or	-10.3978
▁шашинд	-10.3983
▁Калифорни	-10.3984
▁Бүрэн	-10.3984
▁et	-10.3986
▁агентлаг	-10.399
▁этгээд	-10.3995
▁ирэв	-10.3998
▁төслийн	-10.3998
be	-10.4
▁утгыг	-10.4004
▁үйлчилгээг	-10.4008
▁en	-10.4023
▁Хөдөө	-10.4024
▁товчоо	-10.4028
▁гарт	-10.4028
▁1500	-10.4035
иад	-10.4036
пи	-10.4041
▁Занабазар	-10.4045
▁Баатар	-10.4046
▁Бөмбөг	-10.4048
▁тутам	-10.4049
▁Хааны	-10.4049
▁Central	-10.4051
▁эртнээс	-10.4051
ина	-10.4054
▁хурдны	-10.4055
▁вант	-10.4061
▁Эрүүл	-10.4063
▁Жуков	-10.4064
Ар	-10.4068
▁Сангийн	-10.407
▁Богдын	-10.4071
▁Товч	-10.4073
▁тамирчны	-10.4074
▁гэгддэг	-10.4074
▁син	-10.4076
Та	-10.408
▁байснаа	-10.4081
▁name	-10.4082
▁хамааралтай	-10.4083
▁Нар	-10.4083
▁бааз	-10.4086
▁Japan	-10.4086
▁тариалангийн	-10.4089
▁800	-10.409
▁Роберт	-10.4091
▁Бурхан	-10.4097
▁гайхалтай	-10.41
▁таалал	-10.41
▁зэргээс	-10.41
▁шах	-10.4106
▁хүрчээ	-10.4108
НЭР	-10.411
лат	-10.4111
маа	-10.4117
▁отряд	-10.4119
▁сур	-10.4121
▁хамтарч	-10.4126
▁гадны	-10.4127
▁Тулуй	-10.4129
▁анагаах	-10.4129
▁1915	-10.4131
▁агуу	-10.4135
▁олгож	-10.4136
▁бүхэлд	-10.4137
▁саад	-10.4141
▁Таван	-10.4149
89	-10.4152
▁холбоонд	-10.4152
▁чадах	-10.4153
▁авна	-10.4154
ca	-10.4154
▁эрхлэгч	-10.4157
▁масс	-10.4159
▁бөө	-10.4159
▁Вьетнамын	-10.416
▁world	-10.4162
▁хугацаагаар	-10.4168
▁Эрхүү	-10.417
▁зохиогч	-10.4172
▁Го	-10.4173
▁дээрээс	-10.4175
▁Хай	-10.4176
▁харилцах	-10.4179
▁байц	-10.418
▁тойрон	-10.4182
жун	-10.4185
▁шүүхийн	-10.4185
▁Крис	-10.4187
▁Иш	-10.4188
▁үргэлж	-10.4192
▁элчин	-10.4193
▁79	-10.4194
▁элементүүд	-10.42
ГЦ	-10.42
Төв	-10.4203
▁дэлгэрсэн	-10.4204
▁Fund	-10.421
▁адилхан	-10.4216
лыг	-10.4217
▁Татар	-10.4223
▁1900	-10.4224
ton	-10.4229
▁ЕАШТ	-10.4229
▁үлдээсэн	-10.4229
▁хүртлээ	-10.4229
▁эхлүүлсэн	-10.4231
▁аялан	-10.4231
▁сурч	-10.4234
▁Хархорум	-10.4238
▁ордонд	-10.424
хад	-10.4241
▁XVI	-10.4242
▁хөдлөлт	-10.4245
▁зориг	-10.4246
▁жилүүд	-10.4254
▁оюутан	-10.4255
▁Тэ	-10.4256
▁хэрэглэнэ	-10.4257
▁засаглалын	-10.4257
▁von	-10.4258
▁нэрлэжээ	-10.4264
▁удмын	-10.4266
▁VIII	-10.4267
▁ердөө	-10.4267
▁нөлөөлж	-10.4267
дер	-10.4271
▁биед	-10.4274
▁American	-10.4276
▁Сам	-10.4279
сол	-10.4279
▁хүндэт	-10.4279
▁нэхэн	-10.4282
▁Information	-10.4284
▁төлөөлөгчид	-10.4287
▁талаасаа	-10.4292
оосон	-10.4294
|	-10.4301
цаг	-10.4302
▁чиглэлийн	-10.4306
▁онцлогтой	-10.4309
▁тоглоомын	-10.431
▁шороодо	-10.431
▁тухайд	-10.4312
▁нэгдэн	-10.4312
▁малчин	-10.4315
▁Түрк	-10.4315
▁оруулжээ	-10.4316
нүүд	-10.4316
рт	-10.4319
▁тойм	-10.432
3-	-10.4325
▁тоног	-10.4327
▁was	-10.433
▁шүүгч	-10.4331
▁рок	-10.4332
▁Токио	-10.4334
▁Ак	-10.434
▁цас	-10.4345
▁холбогдол	-10.4352
ке	-10.4355
▁залуучуудын	-10.4357
ate	-10.4358
ЫН	-10.4359
▁тохиромжтой	-10.436
▁шилжиж	-10.4361
▁тоглогчийн	-10.4363
▁Бавари	-10.4364
▁луу	-10.437
▁ураг	-10.437
▁талтай	-10.4373
»)	-10.4382
сүрэн	-10.4386
▁хүлээсэн	-10.4387
▁Дүрэм	-10.4387
▁Тим	-10.4388
▁төрлүүд	-10.4389
▁онолын	-10.4389
▁цай	-10.4391
▁багтаасан	-10.4391
▁тархи	-10.44
▁92	-10.4401
▁сурвалжид	-10.4407
▁засагч	-10.4409
▁ерөнхийлөгчөөр	-10.4413
▁жанжны	-10.4413
▁that	-10.4414
▁чиглэсэн	-10.4414
▁дайрч	-10.4416
▁нэршил	-10.4417
▁бригад	-10.4417
▁цэцэрлэг	-10.4421
▁байгаагаа	-10.4424
▁зэрэглэл	-10.4426
▁Ямар	-10.4429
▁тэмдэглэх	-10.4434
▁зайлшгүй	-10.444
▁бүрдэнэ	-10.444
▁чи	-10.4441
ga	-10.4445
▁довтлон	-10.4448
▁хөгжүүлж	-10.4451
▁талбар	-10.4453
▁Ра	-10.4457
▁Archive	-10.4459
мен	-10.446
▁Бе	-10.4467
▁нүүдэлчин	-10.4468
▁Ах	-10.4468
▁Шу	-10.447
▁110	-10.4472
дэх	-10.4472
▁Сингапур	-10.4474
▁шинэчлэн	-10.4475
▁abge	-10.4475
▁Тогоонтөмөр	-10.4479
▁Өрнөд	-10.4484
▁эсэргүүцэл	-10.4489
▁Латви	-10.4489
▁эсэргүү	-10.4491
▁зөрчил	-10.4491
▁үүр	-10.4492
▁Сүхбаатарын	-10.4493
▁өгүүлсэн	-10.4493
лага	-10.4494
ph	-10.4497
▁узбек	-10.4501
▁.4	-10.4509
эж	-10.4513
янь	-10.4513
өх	-10.4514
▁тэнгэрийн	-10.4515
▁хаанаас	-10.4515
▁программ	-10.4516
▁эрхэм	-10.4524
▁Дон	-10.4525
▁(4	-10.4526
▁будаа	-10.4526
ern	-10.4528
▁Na	-10.4531
▁байрт	-10.4532
▁Харри	-10.4539
▁нэгийг	-10.4545
▁хуваагдаж	-10.4548
шир	-10.4549
▁US	-10.4549
Японы	-10.455
▁(«	-10.4553
▁таны	-10.4553
▁биеэр	-10.4554
▁Цахилгаан	-10.4556
▁Парис	-10.4557
▁Шведийн	-10.456
▁Яг	-10.456
▁янзын	-10.4561
▁үгээр	-10.4561
▁дууссан	-10.4565
чилж	-10.4569
иан	-10.457
▁бэлтгэх	-10.457
▁Галт	-10.4574
из	-10.4579
▁колони	-10.4579
▁засагтай	-10.4581
▁Баянмөнх	-10.4586
▁хайрхан	-10.4587
▁Газарзүй	-10.4589
▁1914	-10.4589
▁болгов	-10.4592
▁Lee	-10.4594
▁эхлүүлж	-10.4597
▁онц	-10.4599
▁хаалгач	-10.4599
▁үзүүлдэг	-10.4602
▁Kim	-10.4602
▁малын	-10.4603
далгүй	-10.4604
+8	-10.4604
▁томилсон	-10.4605
доллар	-10.4607
▁жолооч	-10.4607
уулсан	-10.4607
▁My	-10.4619
1.	-10.4621
▁сургаал	-10.4622
▁нөхөр	-10.4625
▁сэцэн	-10.4628
▁Түмэд	-10.4628
▁Хөнгөн	-10.4632
4)	-10.4633
▁нийслэлийн	-10.4633
▁оров	-10.4633
▁бүхэл	-10.4635
▁Ta	-10.4636
▁тоглолтыг	-10.464
▁уураг	-10.4641
▁Die	-10.4643
▁Пак	-10.4643
▁Бай	-10.4647
▁Пап	-10.4647
▁компаний	-10.4653
▁шавар	-10.4659
▁гахай	-10.4661
▁Па	-10.4664
▁хөгжилд	-10.4664
Хэл	-10.4667
▁усыг	-10.4676
▁Али	-10.468
▁Жүжигчин	-10.4683
▁явагдсан	-10.4684
▁Өнөөгийн	-10.469
▁байлдах	-10.4691
баяр	-10.4696
▁мэх	-10.4697
▁Эрчис	-10.471
▁мэргэжилтэн	-10.471
▁гүрнүүд	-10.4711
▁ялган	-10.4712
▁тэргүүлэх	-10.4712
▁залгаа	-10.4714
▁сүр	-10.472
ot	-10.472
▁үнэнч	-10.4727
▁найз	-10.473
mo	-10.473
▁ойрд	-10.4737
▁буцаан	-10.4737
▁шилжсэн	-10.4738
▁насалсан	-10.4741
▁Словен	-10.4746
▁North	-10.475
▁зүрх	-10.4753
▁сургалтын	-10.4753
▁1960-	-10.476
▁Ду	-10.4763
▁Хөдөлгүүр	-10.4765
▁видео	-10.4765
▁өгөгдөл	-10.4765
▁ягаан	-10.4765
▁эргүүлэн	-10.4765
▁уудам	-10.4766
Франц	-10.4769
ag	-10.477
▁дүүрэгт	-10.4773
▁дайсан	-10.4779
▁99	-10.4779
▁Хэрлэн	-10.4787
▁ээлжи	-10.4788
▁мэдэгдэж	-10.4792
▁Ри	-10.4794
▁Туркмен	-10.4794
▁ХК	-10.4798
▁эрхтэн	-10.4806
▁зайн	-10.4813
▁Times	-10.4817
гор	-10.4818
▁үндэслэгч	-10.4819
▁эрдэс	-10.4819
▁Чолла	-10.482
▁гаргав	-10.482
▁алагдсан	-10.4821
▁сонгуулиар	-10.4823
▁Ноён	-10.4832
ke	-10.4833
▁ургийн	-10.4838
▁төгсгөлд	-10.4845
▁4.0	-10.4847
▁анхаарал	-10.4848
▁сонголт	-10.4851
**	-10.4851
▁Байгал	-10.4852
кг	-10.4853
▁3.4	-10.4856
▁төрөлх	-10.4858
▁биет	-10.4862
Ха	-10.4867
ment	-10.4867
▁West	-10.4873
▁fü	-10.4877
▁гран	-10.4884
▁зүйлд	-10.4888
▁Жонсон	-10.4889
▁түүнтэй	-10.4892
▁За	-10.4893
▁(6	-10.4893
уулж	-10.4896
ча	-10.4898
▁урсдаг	-10.4903
▁унаж	-10.4915
▁илэрхийлж	-10.4915
кс	-10.4917
▁барилдаан	-10.4919
di	-10.4925
▁цэнэг	-10.4928
▁Хорезм	-10.4931
▁Canada	-10.4931
▁МУИС	-10.4931
▁Баянгол	-10.4933
▁татсан	-10.4933
▁Агаарын	-10.4935
лох	-10.4936
мэн	-10.4939
▁эмнэлэг	-10.494
хөө	-10.4942
ант	-10.4943
▁нарны	-10.4952
▁үүсгэсэн	-10.4959
▁орхин	-10.496
▁бүрддэг	-10.496
▁талууд	-10.4962
▁Пу	-10.4965
▁дутагдал	-10.4973
▁үнэлгээ	-10.4975
ü	-10.4976
▁нүүрсний	-10.498
▁Цогт	-10.4983
▁Му	-10.4984
▁уурын	-10.4985
▁Ассамблей	-10.4987
▁Боржигин	-10.4987
▁Молдав	-10.4987
▁нэгтгэсэн	-10.4987
▁Миний	-10.4991
2010	-10.4993
Очирын	-10.4998
▁тариа	-10.4998
▁гишүүдийн	-10.5
▁Тав	-10.5012
▁Дотроо	-10.5015
▁дайтаж	-10.5017
▁Жавзандамба	-10.5017
▁Movie	-10.5019
▁Ордос	-10.502
▁нэмэгдсэн	-10.5035
▁бэлтгэж	-10.5038
▁түлхүүр	-10.5038
▁ESPN	-10.5044
▁харсан	-10.5044
▁хорих	-10.5045
нөөс	-10.5045
▁тавигдсан	-10.5046
▁States	-10.5047
▁бизнесийн	-10.505
▁Мариа	-10.5051
▁Туул	-10.5052
▁чадалтай	-10.5053
▁өнөөг	-10.5057
▁авиа	-10.5057
▁сэтгүүлч	-10.5059
▁эн	-10.506
▁эмэгтэйчүүд	-10.5066
100	-10.5067
▁(2013)	-10.5067
ts	-10.5069
ион	-10.507
min	-10.5074
▁Лейкерс	-10.5075
ингэж	-10.5077
▁Узбекистан	-10.5078
▁Алдарт	-10.5086
▁He	-10.509
▁байлгах	-10.5094
▁шударга	-10.5099
▁Дасгалжуулагч	-10.5101
▁буулгаж	-10.5101
▁дэвшиж	-10.5101
▁86	-10.5104
▁залгамж	-10.5109
▁Дэвид	-10.5111
▁Тун	-10.5113
▁жингийн	-10.5114
▁Жүдо	-10.5115
▁хилийг	-10.5118
кан	-10.5122
–17	-10.5122
▁бүрхүүл	-10.5123
▁амбан	-10.514
▁CIA	-10.5141
▁арилжааны	-10.5144
▁Зүйл	-10.5144
▁хандлага	-10.5145
▁доорх	-10.5149
▁овоо	-10.5152
▁дарах	-10.5156
▁хүндтэй	-10.5156
▁бодвол	-10.5158
▁дэргэдэх	-10.5159
▁албанд	-10.5161
▁Каспий	-10.5166
▁үүдэн	-10.5168
▁Ад	-10.517
ite	-10.5171
▁бүтээн	-10.5172
▁98	-10.518
▁Кор	-10.5181
бар	-10.5186
▁уулзаж	-10.5186
▁доторх	-10.5187
өндөр	-10.5188
▁дайран	-10.5188
уудтай	-10.5195
▁Нууц	-10.5195
▁хагаст	-10.5198
▁зурга	-10.5203
▁Иван	-10.5205
▁хана	-10.5205
▁харуулж	-10.5208
ö	-10.5208
▁Star	-10.5208
▁хавийн	-10.5209
▁бирж	-10.521
▁Нэгэн	-10.5212
▁Хд	-10.5216
▁байлдаанд	-10.5217
▁Эрт	-10.5217
▁Найман	-10.5222
▁Republic	-10.5223
▁томъёо	-10.523
▁машины	-10.5231
▁Ногоон	-10.5236
▁хэрэглэгч	-10.5238
▁Хун	-10.5241
▁хүрээлэнд	-10.5241
▁тогтнол	-10.5242
▁ажилчин	-10.5256
▁ирэхэд	-10.5259
не	-10.5261
▁довтолгоо	-10.5265
▁гүрнийг	-10.5272
▁(5	-10.5273
▁зардал	-10.5273
ak	-10.5274
▁авахад	-10.5275
▁рашаан	-10.5276
▁тодорч	-10.5276
mpa	-10.5281
▁тивд	-10.5281
▁Сү	-10.5282
▁энтэй	-10.5282
▁илэрхийлэх	-10.5283
▁Profile	-10.5284
▁ISO	-10.5285
▁довтолсон	-10.5285
▁аман	-10.5287
▁өөрсдөө	-10.5289
▁кирил	-10.5291
▁Даш	-10.5293
▁чоно	-10.5299
구	-10.5301
▁Microsoft	-10.5302
▁Media	-10.5304
▁Encyclopedia	-10.5306
▁Ангилал	-10.5312
▁цагдаагийн	-10.5312
▁Куба	-10.5314
▁ширээний	-10.5315
▁(10	-10.5315
▁Хорооны	-10.5318
▁1.8	-10.5318
▁цогц	-10.5318
▁шийд	-10.5319
▁эмийн	-10.5321
▁шахам	-10.5325
age	-10.5328
▁томилогдсон	-10.5332
▁хөдөлмөр	-10.5333
▁үлэмж	-10.5337
▁Бээжингийн	-10.5343
лоо	-10.5345
йг	-10.5345
▁Улаанбаатарын	-10.5346
▁Ираны	-10.5347
▁хариуцлага	-10.5347
▁хааж	-10.5349
ага	-10.535
▁2007-	-10.5357
▁бодох	-10.5358
даж	-10.536
▁чадал	-10.5361
▁амьдралд	-10.5362
МЭӨ	-10.5365
▁ертөнц	-10.5367
▁97	-10.537
▁фронт	-10.5381
▁93	-10.5381
tic	-10.5386
▁хөвгүүд	-10.5386
▁тэжээлийн	-10.5387
▁туйл	-10.5388
▁зарлав	-10.539
▁унасан	-10.539
▁эерэг	-10.5392
mi	-10.5393
▁зэрлэг	-10.5395
▁уйгур	-10.5412
▁Life	-10.5416
▁тэмээ	-10.5416
▁Monet	-10.5419
▁хамаардаг	-10.542
▁авчирч	-10.5421
▁аван	-10.5425
▁зурагт	-10.5426
▁Барилгы	-10.5427
үүр	-10.5429
ме	-10.5432
▁600	-10.5433
▁эгч	-10.544
▁харах	-10.5446
군	-10.5448
▁Эстони	-10.545
▁алб	-10.5451
▁нүх	-10.5458
▁VII	-10.5462
▁Жил	-10.5463
▁эрсдэл	-10.5464
су	-10.5464
ац	-10.5465
▁эсэргүүцсэн	-10.5477
▁сонгосон	-10.5478
кер	-10.5479
▁Урал	-10.5488
▁Кон	-10.549
▁хөөж	-10.5491
pa	-10.5492
▁Клуб	-10.5496
▁англиар	-10.5497
▁Эзэнт	-10.5498
уг	-10.55
рай	-10.5503
-6	-10.5503
▁1980-	-10.5504
лэл	-10.551
▁Цэнд	-10.5512
▁хийдийн	-10.5514
жиж	-10.5523
▁нээлт	-10.5524
▁байгуулахад	-10.5526
▁функц	-10.5528
энэ	-10.5532
▁хэрэглэгдэж	-10.5537
▁Ахлах	-10.5538
▁гэрлэсэн	-10.5539
▁эгнээнд	-10.5543
өөрөө	-10.5543
▁шил	-10.5545
▁Шин	-10.5548
▁газартай	-10.5552
жил	-10.5553
▁дүнгээр	-10.5555
▁тогтнох	-10.5564
▁El	-10.5564
▁Эмэгтэй	-10.5565
▁Хороо	-10.5566
▁Хөлөнбуйр	-10.5566
▁гарамгай	-10.5566
▁Гүн	-10.5568
▁гарав	-10.5568
▁биологийн	-10.5569
▁Ливерпүүл	-10.557
▁хандаж	-10.5571
▁жүдо	-10.5572
▁1929	-10.5572
▁Зөвхөн	-10.5575
▁бичгээр	-10.5576
▁Крым	-10.5579
агч	-10.5579
▁зарлаж	-10.558
▁ертөнцийн	-10.5588
Үүр	-10.5588
▁үймээн	-10.5595
▁алж	-10.5595
▁чаджээ	-10.5596
▁аваагүй	-10.5597
▁хүрдэг	-10.5598
нер	-10.5604
);	-10.5605
▁Усан	-10.5609
▁Дар	-10.561
q	-10.561
хий	-10.5611
▁хуралдаан	-10.5614
▁1970-	-10.5616
▁2013)	-10.5623
ny	-10.5623
▁гаран	-10.5624
▁цомгоо	-10.5626
▁зодог	-10.5627
▁саарал	-10.5629
▁Хэрвээ	-10.5634
▁Николай	-10.5634
▁Ойрд	-10.5635
ино	-10.5639
▁байдлаас	-10.5639
▁Лаос	-10.5641
▁өнцөг	-10.5642
▁Дан	-10.5644
▁Live	-10.5646
▁төлөөлөгчдийн	-10.565
үл	-10.5655
▁Дөрөв	-10.5656
▁зорьж	-10.5656
▁нийгэмлэг	-10.5658
▁тооллогоор	-10.5661
▁2021	-10.5662
▁амгалан	-10.5666
▁нэрс	-10.5669
▁дуган	-10.567
ong	-10.5671
▁South	-10.5673
▁тавьжээ	-10.5677
est	-10.5678
lu	-10.5681
▁долларын	-10.5682
▁Вектра	-10.5686
▁интернэт	-10.5686
▁холбон	-10.5686
▁өрнөж	-10.5688
мын	-10.5693
▁сонины	-10.5699
ый	-10.5703
▁хөндийд	-10.5713
▁Broadcasting	-10.5716
▁еврогоор	-10.5717
▁Earth	-10.572
▁хүсэл	-10.5727
стан	-10.5732
▁хэлэлцээ	-10.5734
▁зүйлүүд	-10.5735
▁өмч	-10.5736
▁Кр	-10.5738
▁(2002)	-10.5741
▁хөндлөн	-10.5747
▁Institute	-10.5749
▁Эс	-10.5749
▁дүнг	-10.5753
▁тутмын	-10.576
▁Ир	-10.576
▁ашигт	-10.5762
▁хийв	-10.5762
▁(2000)	-10.5765
▁sign	-10.5768
▁хошуунд	-10.5771
▁Se	-10.5773
▁харагдах	-10.5774
▁хорин	-10.5777
▁үлдэх	-10.5779
▁агуулга	-10.5779
ого	-10.578
▁бүтээлээ	-10.5786
ъ	-10.5788
▁эрдэнэ	-10.5792
наасаа	-10.5792
үн	-10.5799
▁Жилийн	-10.58
▁суув	-10.5803
▁Фу	-10.5804
▁орноос	-10.5808
▁j	-10.5808
ци	-10.5809
▁Хонконг	-10.5809
▁нүүдлийн	-10.5812
▁бунхан	-10.5814
gu	-10.5814
Итали	-10.5817
▁араас	-10.5819
▁1910	-10.5825
▁Болд	-10.5827
▁Чон	-10.5837
▁үрэгдсэн	-10.5838
▁Аригбөх	-10.5838
▁Беларусь	-10.584
▁гэдэгт	-10.584
▁харагддаг	-10.584
▁all	-10.5841
▁нэрлэгддэг	-10.5842
▁Порше	-10.5842
▁Пан	-10.5845
тен	-10.5846
үүлэн	-10.5847
▁Сун	-10.5847
ou	-10.5847
▁хаана	-10.5849
▁Ar	-10.585
▁Хүүхэд	-10.5851
ard	-10.5852
5-	-10.5854
▁хойт	-10.5856
сансрын	-10.5858
3%	-10.5861
▁Гвиней	-10.5869
▁дотно	-10.5869
▁Гурванбулаг	-10.5869
▁таамаглал	-10.5869
▁тодорхойлдог	-10.5869
▁урсгалын	-10.5874
▁гоо	-10.5878
уулан	-10.5878
▁хоногт	-10.5879
▁Иргэн	-10.5881
▁Дүр	-10.5882
снаас	-10.5882
▁ногоо	-10.5886
▁гишүүний	-10.5889
▁драфтын	-10.589
▁Иргэний	-10.5891
▁Дугаар	-10.5893
▁сонирхол	-10.5897
▁Кал	-10.5899
▁цутгадаг	-10.59
▁тулгуурлан	-10.5905
▁эгшгийг	-10.5912
▁роман	-10.5915
▁Science	-10.5917
▁эмэгтэйчүүдийн	-10.5926
▁Хит	-10.5928
▁комисс	-10.5929
▁ариун	-10.5931
▁мөхсөн	-10.5931
▁өдрүүдэд	-10.5934
▁мөрдөн	-10.5936
▁урттай	-10.5937
чийн	-10.5938
▁хятадууд	-10.594
▁Лион	-10.5945
сен	-10.595
ant	-10.5952
▁булаг	-10.5955
▁математик	-10.5958
▁бүжиг	-10.5958
▁шороодсон	-10.5962
–13	-10.5963
▁сахиулах	-10.5964
ори	-10.5965
і	-10.5973
▁Гавьяат	-10.5974
▁Косово	-10.5979
▁нөхцлий	-10.5982
▁суужээ	-10.5987
▁Лю	-10.5992
▁Жү	-10.5999
▁шилжүүлэн	-10.6008
▁250	-10.6011
ъя	-10.6014
▁үржил	-10.6015
▁89	-10.6016
▁ирдэг	-10.6026
▁нийгэмд	-10.6028
▁европын	-10.603
▁Tour	-10.6031
▁130	-10.6031
▁даан	-10.6032
▁Браун	-10.6033
▁Афган	-10.6034
ner	-10.6036
▁Мандухай	-10.6038
шгүй	-10.6038
▁загварууд	-10.6041
▁ламын	-10.6042
▁заалт	-10.6045
▁тулалдааны	-10.6047
▁гитар	-10.6054
▁шуурхай	-10.6055
▁үзэн	-10.6056
▁арилжаа	-10.6057
▁Хотон	-10.606
▁археолог	-10.606
▁үйлдсэн	-10.606
Студи	-10.6061
▁багаа	-10.6065
▁Од	-10.607
▁For	-10.607
по	-10.6071
▁1905	-10.6072
▁хоёрыг	-10.6074
▁2012).	-10.6077
хөн	-10.6077
ni	-10.6082
▁грек	-10.6083
one	-10.6086
▁Аг	-10.6086
▁эмнэлгийн	-10.6089
▁хадгалж	-10.6089
▁Байгуулагдсан	-10.6094
▁нэгдэх	-10.6098
хошуу	-10.6099
▁авахаар	-10.61
Өнгөрсөн	-10.61
рин	-10.6101
▁хуудс	-10.6103
▁Цэнхэр	-10.6104
and	-10.611
үүлж	-10.6115
io	-10.6115
▁тэс	-10.6117
▁Хэнань	-10.6118
▁клубын	-10.612
▁зэрэгцэн	-10.6121
▁ажлууд	-10.6122
▁маркетинг	-10.6123
▁санааны	-10.6125
}}	-10.6125
▁Яс	-10.6126
▁дахинд	-10.6129
▁алс	-10.6132
▁VI	-10.6135
▁So	-10.6136
▁List	-10.6138
▁поп	-10.6138
ара	-10.6141
▁Гу	-10.6144
ow	-10.6148
▁анхаарч	-10.6149
▁Asia	-10.6162
▁Дай	-10.6163
▁XVII	-10.6165
▁хийнэ	-10.6166
▁улсуудтай	-10.6174
▁төрч	-10.6175
ап	-10.6175
▁Жу	-10.6176
▁өнгийн	-10.6181
▁компьютерийн	-10.6182
▁нэвтэрч	-10.6182
▁өөрчлөх	-10.6182
▁барил	-10.6186
▁Сен	-10.6187
ие	-10.6193
▁Сум	-10.6193
▁Атланта	-10.6194
▁өргөө	-10.6196
▁Түвд	-10.6197
▁Ленин	-10.6198
▁исэл	-10.6199
фа	-10.62
▁1950-	-10.6202
гол	-10.6208
op	-10.621
je	-10.6212
▁католик	-10.6213
▁элдэв	-10.6213
▁аргыг	-10.6213
▁Тоглолтын	-10.6216
▁Алдар	-10.6218
▁Am	-10.622
▁мандал	-10.6223
▁2016-	-10.6227
ical	-10.6228
бол	-10.6233
No	-10.6234
хятадаар	-10.6236
▁Босни	-10.6238
▁Цэрэн	-10.6239
▁нөлөөтэй	-10.624
▁Найм	-10.6244
▁Company	-10.6245
▁царцдас	-10.6245
▁авснаар	-10.6245
▁ялагдаж	-10.6245
▁7.2	-10.6246
▁оролдсон	-10.6246
▁хаа	-10.6252
Япон	-10.6252
▁гүний	-10.6253
▁харахад	-10.6257
▁голлон	-10.6263
▁баржээ	-10.6266
▁туршлага	-10.6269
▁шим	-10.627
▁урьдчил	-10.6271
▁Энтони	-10.6276
▁Унгарын	-10.6277
▁эсэргүүцэж	-10.6277
▁бүжгийн	-10.6282
▁бодисын	-10.6282
▁1–0	-10.6283
▁Тэнгис	-10.6284
▁(2008)	-10.6284
land	-10.629
▁Гер	-10.6292
▁өрөө	-10.6299
▁нүүн	-10.6299
▁гариг	-10.6304
▁Robert	-10.6306
▁бүрдүүлдэг	-10.6309
▁83	-10.631
▁эзлэв	-10.631
▁хангамжийн	-10.6311
▁таслан	-10.6311
ика	-10.6315
▁сайтай	-10.6315
(2):	-10.6318
▁Хайсан	-10.6321
▁монголд	-10.6323
▁албат	-10.6324
▁Хиагт	-10.6325
▁ф	-10.6325
▁баримтлал	-10.6327
▁ханш	-10.6329
-5	-10.633
end	-10.633
ss	-10.6335
▁14.	-10.6336
▁гэрээний	-10.6336
▁Тажик	-10.6339
▁үргэлжлүүлэн	-10.6341
▁өрсөлдөх	-10.6342
▁сонгогдож	-10.6344
▁төрөн	-10.6347
▁при	-10.6347
▁Чулуун	-10.6349
иш	-10.6354
▁залуус	-10.6354
▁гэнэт	-10.6358
▁хяналтын	-10.6361
Шинэ	-10.6362
аны	-10.6369
▁website	-10.6373
▁судалдаг	-10.6374
▁are	-10.6376
▁Шинжаан	-10.6386
▁хоёрт	-10.6389
▁Хошууд	-10.6389
▁сансар	-10.6389
Загвар	-10.6391
▁1927	-10.6394
мэл	-10.64
▁секунд	-10.6402
огийн	-10.6405
▁оруулан	-10.6407
лиг	-10.641
▁Unix	-10.6411
▁(0)	-10.6412
▁саналаар	-10.6412
▁Норвеги	-10.6413
▁коммунизм	-10.6414
▁түүхчид	-10.6414
ina	-10.6415
▁шоронд	-10.6416
▁ойрын	-10.6417
▁тухайлбал	-10.642
▁Сталины	-10.642
▁Байгууллага	-10.6423
▁зарлажээ	-10.6424
гаад	-10.643
시	-10.6438
уулдаг	-10.644
▁АСЕАН	-10.6441
ген	-10.6448
▁бидэнд	-10.6449
лов	-10.6454
▁ярих	-10.6458
▁Ги	-10.6459
ci	-10.6459
сард	-10.6459
▁Япончууд	-10.6465
▁илтгэл	-10.6468
▁утасны	-10.647
▁Хөвчтөн	-10.647
өв	-10.6471
▁гэрэлт	-10.6472
▁Элчин	-10.6474
▁Бундеслиг	-10.6475
▁Oxford	-10.6476
▁хянан	-10.6485
ахад	-10.6489
▁хуй	-10.6491
84	-10.6492
▁гишүүнтэй	-10.6493
иод	-10.6497
ek	-10.6499
▁нэгэнт	-10.6502
▁халдлага	-10.6503
▁хүдэр	-10.6503
▁аажмаар	-10.6503
▁Телевиз	-10.6506
▁шингэний	-10.6508
▁Global	-10.6508
den	-10.651
▁Интернационале	-10.6512
▁фермент	-10.6513
tion	-10.6514
▁Тайваний	-10.6518
▁буцах	-10.6518
▁жүжиг	-10.6518
▁амар	-10.6519
▁Эль	-10.6521
өөд	-10.6523
▁Ver	-10.6527
▁шарын	-10.6528
▁төлөх	-10.653
ская	-10.653
иц	-10.6532
ден	-10.6535
▁Жордан	-10.6536
лийг	-10.6537
▁бууруулах	-10.6537
▁өлсгөлөн	-10.6539
▁суудалтай	-10.6549
▁Хайду	-10.655
▁шийдвэрээр	-10.6557
хийн	-10.6559
▁шилжүүлэх	-10.6559
ами	-10.6559
í	-10.6562
▁нөлөөлөх	-10.6565
▁тулгуур	-10.6565
▁Османы	-10.6565
▁Ло	-10.6568
▁мэргэжлээр	-10.6572
▁Армени	-10.6576
▁маягийн	-10.6581
▁Македон	-10.6582
▁тулааны	-10.6583
ож	-10.6586
▁Ча	-10.6589
▁баталгаа	-10.6593
▁Борис	-10.6594
▁шувууд	-10.6594
▁Bo	-10.6596
▁эрхшээлд	-10.66
▁оновчтой	-10.6602
▁холбогдуулан	-10.6602
▁дуугаа	-10.6602
▁тамирчид	-10.6602
▁бослогыг	-10.6606
▁Michael	-10.6607
▁Center	-10.6611
▁утгаар	-10.6615
▁Go	-10.6616
▁чулуулаг	-10.6617
▁эдлэл	-10.6622
иар	-10.6623
▁дурсгалт	-10.6623
7%	-10.6626
▁Gu	-10.6632
▁бүргэд	-10.6635
▁Publishing	-10.6635
▁өөрчилсөн	-10.6635
▁илэрхийлсэн	-10.6635
илж	-10.6635
▁давс	-10.6636
▁Ислам	-10.6638
▁зөөлөн	-10.664
▁Su	-10.664
▁Тэнхлэг	-10.6643
▁тоолол	-10.6643
▁Дамдинсүрэн	-10.6644
▁говь	-10.6648
▁дүрмийн	-10.6649
▁Онон	-10.6651
▁шадар	-10.6652
▁хожм	-10.6656
▁Монголоос	-10.6658
▁хэрэглээний	-10.6658
▁баригч	-10.6664
▁богд	-10.6666
▁ёслолын	-10.6669
▁тугийн	-10.6672
▁Тэгвэл	-10.6673
▁Ру	-10.6676
▁турк	-10.6681
▁Цэцэрлэг	-10.6682
жиг	-10.6685
чу	-10.6691
▁дүнтэй	-10.6691
▁модны	-10.6694
▁зогсоож	-10.6698
▁хошой	-10.6701
▁тэмдэглэдэг	-10.6702
мийн	-10.6706
▁Хорлоо	-10.6707
▁тархан	-10.6708
▁босоо	-10.6711
▁Mar	-10.6713
▁нараас	-10.6717
рэн	-10.672
▁хиргисүүд	-10.6722
▁Лин	-10.6725
▁бүтцийг	-10.6735
▁төрөлхтний	-10.6735
▁ердийн	-10.6735
▁жирийн	-10.6736
ски	-10.6736
▁хэдийгээр	-10.6739
▁цуваа	-10.674
▁студи	-10.6741
ру	-10.6741
▁үргэлжилж	-10.6744
▁элс	-10.6745
▁суралцах	-10.6745
▁чөлөөлж	-10.6757
▁Медал	-10.6757
▁Ха	-10.6759
▁(2001)	-10.6762
▁Club	-10.6762
мөсөн	-10.6764
▁Оттоманы	-10.6768
▁орхисон	-10.6769
▁шийдсэн	-10.677
▁санхүү	-10.6771
▁хурдтай	-10.6771
▁медал	-10.6774
▁u	-10.6775
▁тоотой	-10.6775
▁ШХАБ	-10.6779
▁ёсыг	-10.6781
▁Data	-10.6781
▁материалын	-10.6783
итал	-10.6784
▁тэнхлэг	-10.6785
▁лалын	-10.6787
▁нийтлэл	-10.6792
▁дүрээр	-10.6796
▁талбайн	-10.6801
▁талбайг	-10.6806
▁тэртээ	-10.6808
айн	-10.6809
▁хэрм	-10.681
▁төвийг	-10.681
▁хүсэлт	-10.681
▁+1	-10.6814
Он	-10.6818
▁хаалгатай	-10.6821
бор	-10.6824
▁физикч	-10.6824
▁бүү	-10.6825
▁өргөж	-10.6826
▁өгөв	-10.6836
▁хурлаар	-10.6836
ндаа	-10.6836
▁байлдсан	-10.6837
▁татгалзсан	-10.6838
▁хөрөг	-10.6838
▁Техник	-10.6838
1-101	-10.6838
▁Дөрвөд	-10.6839
▁хөдөлж	-10.6842
▁5.3	-10.6844
▁Компьютер	-10.6844
Нас	-10.6846
▁МАН	-10.686
▁байшин	-10.6867
▁асуудлууд	-10.6868
▁(2011	-10.6869
▁нөхөн	-10.687
▁Одоогоор	-10.6871
ала	-10.6873
▁тогтоон	-10.6873
▁явагддаг	-10.6874
▁хөдөлгөөнийг	-10.6875
при	-10.6875
▁төсвийн	-10.688
▁Парламент	-10.6884
▁тэнгэрт	-10.6885
▁үүсгэж	-10.6887
▁хугацааг	-10.6893
ty	-10.6893
▁дагуулж	-10.6895
▁оролцоо	-10.6901
▁хадны	-10.6902
▁чухам	-10.6904
▁тооцвол	-10.6904
----------------	-10.6904
▁холбосон	-10.6904
кин	-10.6908
▁Малайз	-10.691
Өмнөд	-10.6918
▁хэрэглэл	-10.6921
▁Баяр	-10.6923
▁тулж	-10.6925
▁дагуулан	-10.6927
▁Ви	-10.693
▁(7	-10.6931
▁малтай	-10.6932
▁Ён	-10.6933
▁Шанхай	-10.6933
▁суртл	-10.6938
▁шүтээн	-10.6941
▁иран	-10.6941
МУ	-10.6943
za	-10.6948
▁агуулах	-10.6948
▁Египетийн	-10.6951
лог	-10.6953
▁үнэлж	-10.6959
▁зангилаа	-10.696
-21	-10.696
▁(9	-10.6963
mp	-10.6965
mer	-10.6966
▁насан	-10.6968
▁Жоу	-10.6974
▁аймгаас	-10.6974
▁Элбэг	-10.6978
зо	-10.6989
▁сайта	-10.6991
▁хаяа	-10.6993
жу	-10.6997
▁бэхжүүлэх	-10.6997
▁Украйн	-10.7006
Унгарын	-10.7006
▁камер	-10.7007
▁Sa	-10.7008
▁Red	-10.7018
▁пап	-10.7019
▁мэдээг	-10.7021
Зохион	-10.7021
▁Мэдээллий	-10.7022
▁до	-10.7024
▁700	-10.7025
▁эцэс	-10.7025
ier	-10.7025
▁ороод	-10.7026
▁туйлын	-10.7028
▁тэдгээрийг	-10.7033
▁аргууд	-10.7034
▁Тод	-10.7035
▁бөмбөрцөг	-10.7039
▁Чарльз	-10.7041
▁төрлөөр	-10.7041
▁хэлэлцэж	-10.7042
im	-10.7042
▁унадаг	-10.7042
ect	-10.7042
▁язгуурын	-10.7042
▁Σ	-10.7043
▁гадаадад	-10.7044
▁Un	-10.7045
▁Рио	-10.7052
eg	-10.7052
▁хорт	-10.7053
вол	-10.7053
▁сууриа	-10.7053
▁халхын	-10.7054
▁халж	-10.7054
▁Уильямс	-10.706
▁Батжаргал	-10.7061
тэр	-10.7063
5)	-10.7064
▁цагаар	-10.7065
▁Мөнгөн	-10.7073
▁ургадаг	-10.7076
▁отог	-10.7076
▁хуваагдсан	-10.7076
▁бэлгэ	-10.7078
▁улсуудад	-10.7078
өөсөө	-10.7078
зе	-10.7078
+3	-10.7078
▁нэрлэнэ	-10.7079
▁Ань	-10.7079
–24	-10.708
▁мэргэжил	-10.7084
▁Супер	-10.7085
▁Ra	-10.7087
▁багуудад	-10.7092
▁Мах	-10.7093
▁гадаргуу	-10.7094
▁зунгааралт	-10.7095
алж	-10.71
лай	-10.7103
яа	-10.7106
▁бүслэлт	-10.7106
▁өнөө	-10.7108
▁цамхаг	-10.711
▁этгээдийн	-10.7112
▁үйлдвэрт	-10.7113
▁Нэмэлт	-10.7115
▁минутанд	-10.7115
▁SM	-10.7115
▁эргэлтийн	-10.7118
able	-10.7119
ija	-10.7122
це	-10.7125
▁утгууд	-10.7129
▁Те	-10.7133
▁Мөнхбат	-10.7144
▁өндөг	-10.7145
▁Төлөөлөгчдий	-10.7145
▁нэвтрэн	-10.7145
▁Бенгал	-10.7146
зун	-10.7146
▁шагналын	-10.7146
▁Хам	-10.7149
▁олонд	-10.7149
▁төрд	-10.7152
▁язгууртан	-10.7155
▁Виктор	-10.7155
▁БНСУ	-10.7156
дал	-10.7161
▁хяналтаа	-10.7162
▁Стивен	-10.7162
▁ир	-10.7165
▁Албани	-10.7167
▁бүртгэл	-10.7169
▁сольж	-10.717
▁даган	-10.7171
▁түүхч	-10.7171
▁янзаар	-10.7172
▁Түмэн	-10.7172
▁Сент	-10.7176
▁холбогдож	-10.718
▁1.9	-10.718
▁хамаагүй	-10.718
▁зуур	-10.7181
▁гадагш	-10.7184
▁хошууд	-10.7188
▁мэтийн	-10.7188
▁Хангайн	-10.719
▁идэвхитэй	-10.7192
▁чанга	-10.7195
▁цалин	-10.7198
▁танхимд	-10.72
▁мэдлий	-10.7201
▁ХАА	-10.7203
▁Улирл	-10.7207
Цахим	-10.7209
▁дуулж	-10.7209
▁бороо	-10.7214
▁Ne	-10.7215
▁Economic	-10.7215
▁цуглуулах	-10.7217
▁тамир	-10.7218
▁Бээжинд	-10.7219
▁задрал	-10.7231
▁Ред	-10.7233
жаргал	-10.7235
▁хэлтсийн	-10.7235
▁мандалт	-10.7244
инь	-10.7245
▁Урьд	-10.7246
▁салж	-10.7247
▁дахины	-10.7247
▁үүсдэг	-10.7251
▁боловсруулсан	-10.7252
▁pg	-10.7252
▁голчлон	-10.7253
▁гэрт	-10.7253
▁Хамт	-10.7253
▁тэг	-10.7258
▁тууж	-10.7261
▁анхдагч	-10.7261
▁Хьюстон	-10.7266
рэх	-10.7269
▁XIX	-10.7272
▁.3	-10.7274
▁барууны	-10.7282
ард	-10.7283
▁харилцаатай	-10.7283
▁атом	-10.7284
▁5.0	-10.7285
▁ардчилал	-10.7286
улсын	-10.7286
сай	-10.7287
▁1,5	-10.729
Хар	-10.7291
▁бүгдийг	-10.7294
▁Не	-10.7295
▁америк	-10.7296
▁Филиппин	-10.73
▁Li	-10.7305
▁o	-10.7307
▁Do	-10.7307
4%	-10.7311
ja	-10.7316
▁захидал	-10.7321
▁худалдаж	-10.7321
▁Улирал	-10.7322
▁Халк	-10.7323
▁шаарддаг	-10.7324
▁Шахтёр	-10.7325
▁халимаг	-10.7327
▁Chinese	-10.7327
▁болтол	-10.7327
ey	-10.7328
▁Балжинням	-10.7336
▁Ba	-10.7336
▁мэдлийн	-10.7339
▁Түүхийн	-10.734
▁Ё	-10.7342
▁XIII	-10.7343
▁die	-10.7352
▁Soil	-10.7353
▁Дамдин	-10.7355
▁Урианхай	-10.7355
▁transfermarkt	-10.7357
▁Жэймс	-10.7357
▁нэгдлүүд	-10.7357
▁шилжүүлсэн	-10.7357
▁цусны	-10.7357
▁Чили	-10.7358
▁SBS	-10.7358
▁сөнөөгч	-10.7359
▁ангийг	-10.736
▁голууд	-10.7361
▁үзэсгэлэнт	-10.7362
▁Форд	-10.7365
▁Barcelona	-10.7369
-20	-10.7369
▁эвлэл	-10.7373
▁Долоон	-10.7376
▁шашинт	-10.7376
▁байгууллагад	-10.7376
▁no	-10.7377
▁Өвл	-10.7377
▁бүхнийг	-10.7381
үүлсэн	-10.7382
▁Давид	-10.7386
▁зохицуулалт	-10.7386
▁дээл	-10.7387
▁2006-	-10.7388
ger	-10.7388
▁зүйтэй	-10.7389
▁(11	-10.7391
▁Баянзүрх	-10.7392
▁Интернэт	-10.7393
▁Нисэх	-10.7393
▁тэрэгний	-10.7393
▁ялгарах	-10.7393
▁Сэргэлэн	-10.7393
дэл	-10.7396
арай	-10.7396
▁Красноярск	-10.7396
▁ямаа	-10.7397
ive	-10.7397
▁Армен	-10.7397
▁(29	-10.7397
▁холбоотойгоор	-10.7398
▁Чаплин	-10.7399
▁хандах	-10.74
▁өөрсдийг	-10.74
▁Government	-10.7401
пер	-10.7403
тойгоор	-10.7405
▁Уулын	-10.7408
▁Лувсан	-10.7408
▁хүрнэ	-10.7411
▁армид	-10.7411
че	-10.7411
▁official	-10.7413
▁5000	-10.7413
1-	-10.7414
улс	-10.7416
▁хун	-10.7417
▁про	-10.7422
гүн	-10.7428
▁Chemistry	-10.7428
▁огцом	-10.7428
▁очоод	-10.7428
▁ашиглагддаг	-10.7429
▁хиллэнэ	-10.7429
▁Br	-10.743
алсан	-10.7431
▁First	-10.7435
лэв	-10.7435
үүн	-10.7435
▁Юан	-10.7439
▁Is	-10.7447
▁цаас	-10.7449
▁Ma	-10.745
▁сумтай	-10.746
▁Колумб	-10.746
ay	-10.7462
▁үндс	-10.7462
▁хүннү	-10.7462
▁офицер	-10.7462
市	-10.7464
бан	-10.7465
▁эрхлэн	-10.7467
▁дамжуулагч	-10.7467
▁тэгшитгэл	-10.7468
арт	-10.747
▁хоолойн	-10.7473
▁удирдагчид	-10.7475
▁Зэв	-10.7476
се	-10.7476
▁вэб	-10.7477
ова	-10.7477
▁ганцхан	-10.7478
▁До	-10.7478
▁Аварга	-10.7479
▁Тал	-10.7479
▁тэлж	-10.7484
ber	-10.7485
10-	-10.7486
▁залгамжлагч	-10.7498
▁гүнзгий	-10.75
▁дээдэс	-10.7502
▁0.0	-10.7503
▁байрлана	-10.7503
▁бал	-10.7507
▁GK	-10.751
Од	-10.7513
▁Амар	-10.7513
▁2.6	-10.7515
▁хорио	-10.7516
▁шалтгаанаар	-10.7518
▁ид	-10.7518
▁мөргөл	-10.7519
▁HTML	-10.7519
▁явагдах	-10.752
ud	-10.7522
▁инженерийн	-10.7526
–14	-10.7527
ll	-10.7531
Амгалан	-10.7533
▁клип	-10.7533
▁байгаагаас	-10.7534
▁ЗСБН	-10.7537
▁мэндэлжээ	-10.7538
▁тагнуул	-10.7539
дэ	-10.7539
▁уншиж	-10.7539
▁султан	-10.7541
▁тас	-10.7541
▁Карлос	-10.7542
▁төлөвлөгөөг	-10.7542
▁6.3	-10.7543
▁бэлчээр	-10.7546
ладаг	-10.755
▁ханз	-10.755
▁(1999)	-10.7551
▁хамтдаа	-10.7555
▁бэх	-10.7555
▁Song	-10.756
порт	-10.7561
▁нохой	-10.7567
▁чөлгөө	-10.7573
▁горим	-10.7573
▁эгэл	-10.7573
▁оролцжээ	-10.7573
▁сэдэв	-10.7575
▁харьяалагддаг	-10.7575
▁ууган	-10.758
▁Di	-10.758
▁хувьсгалт	-10.7581
▁маргаантай	-10.7583
▁хойших	-10.7586
▁03	-10.7586
ip	-10.759
▁Улаанбаатарт	-10.759
▁гэрлийн	-10.7591
▁Хор	-10.7591
▁Paul	-10.7593
▁Британид	-10.76
▁im	-10.7606
▁Монтенегро	-10.761
▁мастер	-10.761
▁Америкт	-10.761
▁чадна	-10.761
▁It	-10.7612
▁Ричард	-10.7612
хны	-10.7614
▁Мэлоун	-10.7615
▁япончууд	-10.7617
▁дэвсгэрээс	-10.7618
▁Sh	-10.7619
ᠢ	-10.7622
ver	-10.7624
▁тэдэнд	-10.7629
▁ди	-10.763
Сүхбаатар	-10.7632
▁Сауд	-10.7632
илсон	-10.7634
ля	-10.7639
▁залж	-10.764
▁морины	-10.7643
▁Бүтэн	-10.7646
▁цэргээс	-10.7646
Олон	-10.7647
▁авга	-10.7648
2%	-10.7652
▁сүүлчээр	-10.7652
-8	-10.7653
▁голлох	-10.7656
▁ажилтнууд	-10.7656
▁бууны	-10.7659
▁хэлэхэд	-10.7659
▁яах	-10.7659
▁2009.	-10.7659
▁еврей	-10.7663
фу	-10.7671
гэр	-10.7672
▁мэдэхгүй	-10.7673
пе	-10.7678
▁зэр	-10.7681
▁Хэбэй	-10.7683
▁хадгалагдаж	-10.7683
▁БНУ	-10.7683
уш	-10.7683
▁үзүүрлэсэн	-10.7684
▁Тэмүжин	-10.7688
▁туршилт	-10.7688
▁ө	-10.7688
▁жүжгийн	-10.7692
▁хийл	-10.7692
▁Ji	-10.7695
sk	-10.7696
жоу	-10.77
▁орондоо	-10.77
▁дуулал	-10.7701
▁(3	-10.7707
▁муутай	-10.771
▁далд	-10.771
▁ре	-10.7711
†	-10.7713
▁Мөрөн	-10.7715
▁шэн	-10.7716
▁учиртай	-10.7717
hu	-10.7717
▁усаар	-10.7718
▁1930-	-10.7718
▁Янь	-10.7719
▁Department	-10.772
▁Аскона	-10.772
▁анхлан	-10.772
▁дулааны	-10.7721
▁нэрлэгдэж	-10.7724
▁Шинжааны	-10.7725
▁Тоглолт	-10.7728
od	-10.7731
▁дууллы	-10.7731
▁YG	-10.7733
▁бүслэн	-10.7734
▁иргэншил	-10.7735
▁Ho	-10.7736
▁оролцогч	-10.7738
▁Олноо	-10.7739
▁Award	-10.774
▁метро	-10.7745
жуулах	-10.7745
frac	-10.7745
▁мужууд	-10.7746
der	-10.775
bo	-10.7751
▁Үүн	-10.7755
аз	-10.7756
9%	-10.7756
▁naselen	-10.7757
▁Handbook	-10.7757
▁Никс	-10.7757
▁өдрийг	-10.7757
солонгосоор	-10.7757
▁Югослав	-10.7758
▁Антонио	-10.7758
▁ялгаж	-10.7759
▁Khan	-10.776
▁Билгэ	-10.7761
▁үргэлжлэх	-10.7762
▁ойг	-10.7764
▁Дам	-10.7765
▁Сургуулийн	-10.7767
▁унах	-10.7768
▁Lorde	-10.7772
▁1908	-10.7773
▁ширээг	-10.7778
▁Валенсиа	-10.778
▁чадалгүй	-10.778
▁хамгаалахын	-10.7781
▁орныхоо	-10.7782
▁Май	-10.7786
▁авагч	-10.7787
лаад	-10.7789
▁зүгээр	-10.7792
▁бүсгүй	-10.7794
▁Website	-10.7794
▁population	-10.7794
▁устгасан	-10.7794
▁Мао	-10.7794
▁нөхөрсөг	-10.7794
▁Sky	-10.7795
▁Индонезийн	-10.7796
▁хөрсөнд	-10.7808
▁Super	-10.7809
▁зохиож	-10.7815
▁навч	-10.7819
▁Ав	-10.7827
ae	-10.7828
лэгч	-10.7828
▁тэмцэлд	-10.7828
▁Research	-10.7831
▁өөрчлөгдөж	-10.7831
▁үүдэлтэй	-10.7831
▁Чүнчон	-10.7831
▁Цинь	-10.7835
▁хүсч	-10.7836
▁перс	-10.7837
27)	-10.7838
▁хүүхэдтэй	-10.784
▁газарзүйн	-10.7841
▁феодал	-10.7841
▁чинсан	-10.7841
▁эхийн	-10.7844
▁асуулт	-10.7853
▁сурагч	-10.7856
дун	-10.786
▁хас	-10.7861
рүү	-10.7862
ваа	-10.7865
ᠨ	-10.7865
▁салан	-10.7866
▁Ша	-10.7866
▁зорчигч	-10.7869
han	-10.7869
▁шахалт	-10.7872
▁Гитлер	-10.7874
▁Өөртөө	-10.7876
Бүтэн	-10.7878
ji	-10.7879
▁байгууллаг	-10.7881
▁салбарууд	-10.7882
8%	-10.7883
▁08	-10.7884
▁ястны	-10.7885
лэгдсэн	-10.7887
▁холболт	-10.7887
▁Sun	-10.7887
Сан	-10.7888
▁олгожээ	-10.7895
▁(19	-10.7898
oc	-10.7902
бе	-10.7903
▁Буд	-10.7907
▁тэнцэх	-10.7908
АР	-10.791
▁ханыг	-10.7911
▁хатнаас	-10.7911
зан	-10.7912
аб	-10.7916
▁домогт	-10.7917
▁холбоосууд	-10.7922
▁Хүйтэн	-10.7926
▁Арал	-10.7929
▁маягаар	-10.7929
▁Петр	-10.7932
▁One	-10.7932
▁зайг	-10.7935
▁Вер	-10.7937
▁Як	-10.7939
▁томьёо	-10.7942
▁Киев	-10.7942
ˈ	-10.7942
▁тохирох	-10.7944
▁хал	-10.7946
▁Нийгэм	-10.7953
▁дүрмий	-10.7953
▁Иргэншил	-10.7954
▁нэгдлийн	-10.7955
▁элементийн	-10.7957
▁Du	-10.7958
▁суурьтай	-10.7959
ka	-10.796
▁ажиллажээ	-10.7961
ых	-10.7962
▁хамтлагт	-10.7966
▁ирээдүйн	-10.7967
▁хятадаар	-10.7976
▁бууч	-10.7979
САН	-10.7981
German	-10.7981
_{	-10.7981
▁градус	-10.7982
▁Орд	-10.7982
▁дэвшүүлсэн	-10.7982
▁Португалын	-10.7983
ани	-10.7984
▁давшилт	-10.7985
▁найр	-10.7988
▁хянах	-10.7989
▁хязгаарт	-10.7991
оф	-10.7992
хгүй	-10.7993
▁Хэдий	-10.7993
ism	-10.7994
▁хороонд	-10.7997
▁хуягт	-10.7998
▁St	-10.8001
▁Жава	-10.8005
pi	-10.8006
▁биз	-10.801
▁сүлжээнд	-10.8012
үүлэх	-10.8012
▁түлш	-10.8013
хүүгийн	-10.8013
▁гараг	-10.8014
av	-10.8015
lin	-10.8016
▁зүйлсийг	-10.8016
▁харьцааг	-10.8016
▁босогчид	-10.8021
▁тохирсон	-10.8021
▁төрүүлсэн	-10.8023
йл	-10.8024
▁эмчилгээ	-10.8027
▁Селтикс	-10.8032
ге	-10.8033
▁Моголистан	-10.8036
▁бүрдүүлэх	-10.8036
▁заах	-10.8037
▁(30	-10.8037
▁АН	-10.8038
▁language	-10.804
▁түмнийг	-10.8044
▁Дарви	-10.8044
▁(2010	-10.8046
▁Үнэн	-10.8047
ran	-10.8048
▁Путин	-10.805
▁хүрээг	-10.8055
▁бактер	-10.8055
ens	-10.8057
▁Мужийн	-10.8058
▁Ишлэл	-10.8059
▁нөлөөлдөг	-10.8059
▁Лал	-10.8059
БНМАУ	-10.8061
▁буудан	-10.8061
▁түрэгүүд	-10.8062
400	-10.8064
▁94	-10.8066
хор	-10.8066
▁4.4	-10.8068
▁бүрээс	-10.8068
▁07	-10.8069
▁бутрал	-10.8071
▁туяа	-10.8072
▁суурьшиж	-10.8073
ium	-10.8078
▁Edition	-10.8079
▁Өнгөрсөн	-10.808
▁шийдэх	-10.8081
▁Ювентус	-10.8085
▁Улиастай	-10.8086
▁Дин	-10.8088
▁медальт	-10.8093
▁Эрдэнэсант	-10.8097
▁эдүгээ	-10.8097
▁дэмждэг	-10.8098
▁Апек	-10.8098
▁сэрүүн	-10.8099
гуй	-10.81
▁баригчид	-10.81
▁яв	-10.81
▁Нарийн	-10.8101
▁өргөргий	-10.8102
▁уртраг	-10.8107
▁Cambridge	-10.8108
тур	-10.811
апина	-10.8113
▁Эсэн	-10.8116
маг	-10.8116
▁0–1	-10.8116
▁Өөрийн	-10.8117
▁Хэм	-10.8119
эгч	-10.8123
▁Дараагийн	-10.8123
▁самуун	-10.8124
sa	-10.8125
ао	-10.8133
▁хэлнээ	-10.8133
▁задарч	-10.8135
▁яагаад	-10.8135
▁тодорсон	-10.8135
Баруун	-10.814
▁ал	-10.8143
▁Дөрвөлжин	-10.8147
▁үүргээ	-10.8154
▁холбоог	-10.816
▁Зуу	-10.8164
▁Эрдэнэт	-10.8165
Баг	-10.8166
ft	-10.8167
▁нэгтгэл	-10.817
▁чарт	-10.8171
▁Industry	-10.8174
▁орлогын	-10.8174
▁Year	-10.8175
Идэр	-10.8178
▁new	-10.8179
▁гэхдээ	-10.8179
сер	-10.818
▁бэл	-10.8182
▁МкЛарен	-10.8183
▁Залуу	-10.8185
▁өдөрт	-10.8189
▁найдвартай	-10.8189
-2010	-10.8191
▁атлетик	-10.8194
▁боол	-10.8195
гө	-10.8196
асагдах	-10.8197
ei	-10.8203
▁Кэ	-10.8205
▁Франк	-10.8207
▁чийглэг	-10.8213
▁бүлэглэл	-10.8213
▁хаагч	-10.8213
▁Болгарын	-10.8214
▁ээлж	-10.8218
2012	-10.8221
▁CD	-10.8225
ap	-10.8229
▁Жинь	-10.8234
▁жун	-10.8242
▁чадварыг	-10.8243
▁Солонгост	-10.8244
▁хутагтын	-10.8245
▁хуралдаанаар	-10.8245
the	-10.8245
▁Real	-10.8246
▁тэмцээнийг	-10.8251
▁Тосонцэнгэл	-10.8251
▁Ялангуяа	-10.8251
▁Сычуань	-10.8252
▁сервер	-10.8253
▁бүрдүүлэгч	-10.8254
▁улсуудыг	-10.8258
▁not	-10.8259
▁өвчний	-10.8261
ших	-10.8263
▁штаб	-10.8264
Турк	-10.8266
хэд	-10.8266
▁Google	-10.8269
▁христийн	-10.8272
▁тэмдгийг	-10.8272
▁хэлтэн	-10.8273
▁180	-10.8273
▁Vol	-10.8274
▁(28	-10.8277
▁бүхэлдээ	-10.8281
Алдар	-10.8285
▁Хэ	-10.8288
▁байрлалд	-10.8288
ster	-10.8292
▁магадлалтай	-10.8294
▁айлчлал	-10.8294
▁говийн	-10.8295
во	-10.8295
▁хам	-10.8296
▁Чингисийн	-10.8296
Антонио	-10.8296
▁Вилла	-10.8296
▁нүүдэллэн	-10.8297
▁найрал	-10.8297
▁цэнхэр	-10.83
▁бүтэцтэй	-10.83
▁Ангар	-10.8302
тны	-10.8304
▁байгуулагдах	-10.8306
▁илт	-10.8307
▁пуужин	-10.8308
kh	-10.8308
берг	-10.8309
▁Майами	-10.8312
▁Хэнтийн	-10.8313
▁эзлэж	-10.8315
евич	-10.8316
▁Хошуу	-10.832
▁тусгаарлах	-10.832
▁Данийн	-10.8321
долларын	-10.8328
▁Service	-10.8329
▁хариуцсан	-10.8329
▁Сант	-10.8331
▁сэргэн	-10.8331
▁түүн	-10.8332
200	-10.8335
▁дуурийн	-10.8335
▁ДИУ	-10.8336
▁Great	-10.8336
▁намууд	-10.8337
▁Туркменистан	-10.8337
▁Big	-10.8338
▁отгон	-10.8338
бү	-10.8338
▁тусам	-10.8338
▁UEFA	-10.8339
▁As	-10.8341
▁Fe	-10.8341
▁(8	-10.8342
▁Нацист	-10.8345
▁Эн	-10.8346
кон	-10.8349
▁мэд	-10.8349
юй	-10.8351
▁Дайн	-10.8351
out	-10.8355
▁архи	-10.8358
▁Украины	-10.836
▁Эксо	-10.836
▁адилаар	-10.8362
▁хичээлийн	-10.8368
нин	-10.8368
▁шөнийн	-10.8369
▁дэмжсэн	-10.837
▁хурандаа	-10.837
▁эрхэлж	-10.8373
▁Өвөрмонгол	-10.8373
▁125	-10.8374
▁Улаангом	-10.8376
▁үүсгэнэ	-10.8376
-7	-10.8377
▁гараар	-10.8378
▁сууринд	-10.8378
▁гавьяа	-10.8381
▁өнгөөр	-10.8383
▁хэргээр	-10.8384
▁Банк	-10.8386
▁төлөвлөж	-10.8387
▁тоглогчоор	-10.8387
▁өргөмжилж	-10.8393
уа	-10.8394
ᠭ	-10.8399
▁олимпоос	-10.8402
▁дохио	-10.8402
▁Pa	-10.8404
▁Ховдын	-10.8405
арьяалал	-10.8406
▁Идэр	-10.8406
▁Хакас	-10.8409
▁ухаалаг	-10.8409
▁гоолдсон	-10.8409
▁Комбо	-10.841
▁Армийн	-10.8411
▁чадварлаг	-10.8413
▁Унгерн	-10.8414
▁бүст	-10.842
▁байгуулахаар	-10.8424
▁тэмдэглэжээ	-10.8425
ä	-10.8432
▁хүрээлэнгийн	-10.8435
андаа	-10.8437
–23	-10.8438
▁Маршал	-10.8438
рам	-10.8441
▁Кай	-10.8444
▁налуу	-10.8444
▁зарж	-10.8445
Ю	-10.8445
ain	-10.8448
▁хэлбэрийг	-10.8448
▁Парагвай	-10.8448
▁Барилдаа	-10.8448
ub	-10.845
инд	-10.8451
▁жи	-10.8451
▁Хятадыг	-10.8454
▁анд	-10.8455
▁хэлэлцэх	-10.8457
нам	-10.8458
▁онгоцоор	-10.8459
▁BTS	-10.8461
▁өрхийн	-10.8462
▁үндэслэл	-10.8463
▁хүргэн	-10.8467
▁Манжид	-10.8468
▁Балба	-10.847
▁гарцгүй	-10.847
▁РНХ	-10.8472
▁хүүхдий	-10.8477
ᠡ	-10.8479
▁Ганхуяг	-10.8479
▁орхиж	-10.8482
▁харь	-10.8484
▁Зэвсэг	-10.8488
▁Аргентины	-10.8488
▁аппарат	-10.8488
etterkontor	-10.8488
▁социализм	-10.8489
▁дэмжин	-10.8489
▁эхэлдэг	-10.849
▁Горбачёв	-10.849
rd	-10.8491
▁горхи	-10.8491
▁хэлбэрт	-10.8492
▁надад	-10.8494
▁Online	-10.8497
лд	-10.85
▁Хүү	-10.8501
▁1916	-10.8502
Идэвхтэ	-10.8502
▁Дорж	-10.8502
Өмнөх	-10.8504
▁оронч	-10.8505
▁экспорт	-10.8505
▁Бүрд	-10.8507
▁Album	-10.851
жамц	-10.8511
дай	-10.8512
▁ухаанд	-10.8512
лөө	-10.8514
▁тэмдэглэгээ	-10.8514
гууд	-10.8519
gi	-10.8521
▁алтны	-10.8522
▁Аб	-10.8523
тээ	-10.8526
▁Кадетт	-10.8528
▁бүрэлдэхүүнтэй	-10.8528
▁өрнөсөн	-10.8529
▁арлыг	-10.853
Q	-10.853
▁үзжээ	-10.8533
▁сурталчилгаа	-10.8535
▁цолоо	-10.8536
▁Казахстаны	-10.8538
▁нуруунд	-10.8538
▁борлуулалт	-10.854
▁Day	-10.8541
▁дүрслэл	-10.8543
qu	-10.8543
▁шүтлэгтэй	-10.8545
▁дуг	-10.8546
ik	-10.8551
лам	-10.8552
▁тэмдэглэж	-10.8553
▁ойрад	-10.8553
▁заншил	-10.8554
жан	-10.8558
idae	-10.8561
▁санд	-10.8562
иас	-10.8562
гер	-10.8562
▁дэлгэц	-10.8563
▁оролцон	-10.8563
▁2–1	-10.8564
▁We	-10.8566
▁ондоо	-10.8568
▁Байнгын	-10.8568
▁дижитал	-10.8568
▁Елюй	-10.8568
▁үүсэж	-10.8568
▁Cha	-10.8568
▁дүүрэн	-10.857
▁эрхэлдэг	-10.857
▁зургууд	-10.8571
▁онцлох	-10.8572
▁нүүрстөрөгч	-10.8572
▁хэдхэн	-10.8576
▁Марсель	-10.8576
▁108	-10.8576
▁ангиллын	-10.8577
▁On	-10.8577
гин	-10.8579
000	-10.8579
▁Лорд	-10.8579
▁нээх	-10.8583
▁Месси	-10.8584
Па	-10.8585
▁уламжлалтай	-10.8586
▁ярилцлага	-10.8588
▁Time	-10.8588
ر	-10.8592
line	-10.8598
▁дэвшил	-10.86
▁con	-10.86
▁Адам	-10.8601
▁Абу	-10.8602
▁иж	-10.8603
▁Ляо	-10.8606
▁text	-10.8606
▁очих	-10.8607
▁Хашаат	-10.8608
▁Гана	-10.8609
▁хугацаатай	-10.8609
▁эзэмших	-10.8609
▁тогтож	-10.8609
рен	-10.8609
▁12,500	-10.8613
▁Үе	-10.8613
▁өдрөөс	-10.8615
▁шагналууд	-10.8615
],	-10.8616
▁явжээ	-10.8618
▁Шри	-10.8619
▁БНХУ	-10.8622
▁өгүүллэг	-10.8624
▁долгион	-10.8626
▁илгээх	-10.8628
▁Пер	-10.8634
Өлзий	-10.8634
▁түмэнд	-10.8634
гий	-10.8642
ica	-10.8643
▁суу	-10.8646
▁мэндэлсэн	-10.8649
▁хэрэгслийн	-10.8649
▁хожсон	-10.8649
▁манлай	-10.8651
▁хүчдэл	-10.8652
▁Син	-10.8652
▁хээ	-10.8653
▁дүрийн	-10.8653
▁механизм	-10.8654
▁Се	-10.8655
▁байрласан	-10.8655
▁бүрдэх	-10.8659
▁При	-10.8659
▁(1998)	-10.8662
▁болсноос	-10.8664
▁Хүмүүс	-10.8667
▁хүнээс	-10.8667
лгүй	-10.8674
▁толгойг	-10.8677
▁America	-10.8678
tu	-10.8679
▁үер	-10.8684
à	-10.8689
▁Зүрчид	-10.869
▁өгнө	-10.869
▁системүүд	-10.869
▁хурааж	-10.8691
▁02	-10.8694
▁Чехословак	-10.8694
▁Дээр	-10.8695
▁Санхүүгийн	-10.8697
▁European	-10.8699
▁утгаараа	-10.87
▁Хангай	-10.87
▁Абди	-10.8702
▁Show	-10.8702
▁2013.	-10.8703
▁урвал	-10.8704
▁дайчин	-10.8705
▁засаглалтай	-10.8707
▁Ням	-10.8707
тун	-10.8712
▁Алшаа	-10.8712
–18,	-10.8712
▁дэлгэрч	-10.8716
▁амжилтын	-10.8716
▁нэгжийн	-10.8719
▁нээлтээ	-10.872
▁(1997)	-10.8723
▁урлагт	-10.8726
▁байгууллагуудын	-10.8726
▁(1)	-10.8728
▁залгаж	-10.8728
▁Конгресс	-10.873
▁Новгород	-10.873
▁Уиллиам	-10.873
▁шалгуур	-10.8731
▁Бензин	-10.8731
▁зогсоосон	-10.8731
▁үйлчлэх	-10.8736
▁Маш	-10.8739
▁Чу	-10.874
Бразил	-10.8741
▁дараахан	-10.8742
▁шарил	-10.8743
▁Хүүхдийн	-10.8744
▁Хожуу	-10.8745
▁төрөлхтөн	-10.8746
▁Кавказын	-10.8752
▁Куб	-10.8754
▁Детройт	-10.8754
▁довтолгоон	-10.8755
▁иргэдэд	-10.8758
▁бүлд	-10.8758
▁хаяж	-10.8759
▁буурч	-10.8759
▁English	-10.8762
▁”	-10.8762
є	-10.8763
ris	-10.8768
▁битүү	-10.8769
▁Bureau	-10.8771
▁Католик	-10.8771
▁найруулсан	-10.8772
▁танигдсан	-10.8772
▁Нанжин	-10.8772
▁нэвтрүүлэх	-10.8775
▁байснаар	-10.8777
вен	-10.878
▁сэтгүүлийн	-10.8786
▁хөөн	-10.8786
▁history	-10.8788
▁Line	-10.8788
▁Нийтийн	-10.8789
▁физикийн	-10.8791
▁кинонууд	-10.8794
оросоор	-10.8795
▁Даллас	-10.8795
чонь	-10.8797
▁Рома	-10.88
▁Төмөрийн	-10.8804
▁Манта	-10.8805
ling	-10.881
▁Тар	-10.881
▁Soccerbase	-10.8813
▁Яагаад	-10.8813
▁CRC	-10.8813
▁хянаж	-10.8814
▁Стэйт	-10.8814
▁Пүсань	-10.8814
▁захирсан	-10.8814
олон	-10.8814
▁шашинтан	-10.8814
▁гэрээгээ	-10.8814
▁Best	-10.8814
▁организм	-10.8815
▁багагүй	-10.8817
▁дэлгэрэнгүй	-10.8822
▁Con	-10.8822
▁Марко	-10.8825
хүн	-10.8826
дох	-10.8827
▁Hot	-10.8828
ze	-10.8829
▁тогтолцоог	-10.883
▁хүүтэй	-10.8831
–4	-10.8831
▁хувилбарыг	-10.8832
▁давхарга	-10.8835
ance	-10.8836
▁Алан	-10.8836
▁статус	-10.8837
ээгүй	-10.8837
лалт	-10.884
▁дурын	-10.884
▁6.0	-10.8843
▁Гавьяа	-10.8845
bi	-10.8849
▁худал	-10.8851
▁агууламж	-10.8852
▁Хувь	-10.8852
▁Фердинанд	-10.8854
▁хожиж	-10.8854
▁Смит	-10.8856
▁одонгоор	-10.8856
sch	-10.8857
▁туршилтын	-10.8858
▁холбох	-10.8861
▁дай	-10.8862
per	-10.8864
▁хөтлөгч	-10.8865
▁тамхи	-10.8865
гджээ	-10.8865
▁микро	-10.8865
▁Тэнд	-10.8867
ано	-10.8869
доржийн	-10.8869
▁Юй	-10.8871
▁дурсгалын	-10.8872
▁төвтэй	-10.8873
аш	-10.8875
ous	-10.8876
▁сургуулиуд	-10.8878
▁үз	-10.8881
▁арав	-10.8882
ler	-10.8885
▁Mc	-10.8886
▁(2014)	-10.8886
▁хэлмэгдүүлэлт	-10.8891
ju	-10.8892
▁хямд	-10.8893
▁лимузин	-10.8895
▁хөхтөн	-10.8895
▁angegeben	-10.8895
▁торгуул	-10.8895
▁явсаар	-10.8896
▁цомогт	-10.8897
▁байтал	-10.8897
▁Суурин	-10.89
▁дав	-10.8902
▁Гуулин	-10.8902
▁Тү	-10.8904
▁Алаг	-10.8906
▁бурханы	-10.8917
үг	-10.8918
▁гоолоо	-10.8921
▁дэхь	-10.8924
ov	-10.8927
▁анхаарлы	-10.893
▁асуудалд	-10.8931
ест	-10.8932
▁бодисууд	-10.8933
▁Рашид	-10.8934
син	-10.8935
▁Person	-10.8935
800	-10.8936
▁Баруунтуруун	-10.8937
▁зөвлөмж	-10.8937
▁өөрчлөгдсөн	-10.8937
▁нүүдэлчдийн	-10.8937
үүдтэй	-10.8938
▁үн	-10.8938
▁ойрхон	-10.894
▁алдав	-10.894
▁Хүрээнд	-10.8942
▁задралын	-10.8945
▁цохин	-10.8947
▁дамжуулж	-10.8948
▁тархалт	-10.895
▁шүтэх	-10.8951
▁гараад	-10.8955
▁голомт	-10.8962
стер	-10.8966
▁Bu	-10.8966
чиг	-10.8967
–6	-10.8969
▁шүтдэг	-10.8969
▁захиа	-10.897
▁тогтох	-10.897
нө	-10.8981
▁биелүүлэх	-10.8988
▁1895	-10.8989
▁Han	-10.8992
▁01	-10.8995
▁төхөөрөмжүүд	-10.8997
▁Ганбаатар	-10.8997
▁Европоос	-10.8999
ale	-10.9007
▁идэр	-10.9009
▁зөвшөөрөл	-10.901
▁шалгаж	-10.9011
▁хошууг	-10.9013
▁өртөж	-10.9021
▁шулуун	-10.9021
▁даалгавар	-10.9021
бек	-10.9021
▁олдвор	-10.9021
▁Ляонин	-10.9021
▁ангилдаг	-10.9022
▁ихэнхи	-10.9022
▁шаардсан	-10.9023
▁мэдээний	-10.9023
Оросын	-10.9024
▁Хянган	-10.9025
▁Хөгжлийн	-10.9028
▁05	-10.903
▁тогтворгүй	-10.9031
▁тор	-10.9032
бэ	-10.9032
▁СИ	-10.9033
▁ко	-10.9034
▁айлын	-10.9034
▁Books	-10.9035
▁тавигд	-10.9035
▁хөдлөх	-10.9036
▁тангараг	-10.904
▁нэвтрүүлгийн	-10.904
▁Дамб	-10.9042
▁Кванту	-10.9043
жавын	-10.9044
▁сүү	-10.9044
Мөнх	-10.9045
▁гэргий	-10.9047
▁буга	-10.9051
ice	-10.9061
▁хашиж	-10.9063
▁тулгуурласан	-10.9063
▁солино	-10.9064
▁архив	-10.9065
▁MBC	-10.9065
▁(4)	-10.9065
▁хэрэгжиж	-10.9066
дов	-10.9066
▁шилжилт	-10.9068
▁холбож	-10.907
ab	-10.9071
▁Бурханы	-10.9073
▁үйлс	-10.9074
▁со	-10.9074
▁Кипр	-10.9074
▁Ас	-10.9075
▁Бангладеш	-10.9076
Мэргэжил	-10.9078
▁сек	-10.9078
▁Монако	-10.9078
▁Internationale	-10.9084
▁цөөнгүй	-10.9084
▁Сенат	-10.9087
шиж	-10.9089
our	-10.9089
▁Торонто	-10.909
▁карт	-10.9092
Эр	-10.9098
▁хөгжилтэй	-10.9099
▁дур	-10.9104
▁7.3	-10.9105
▁шаардлагыг	-10.9105
▁баригдаж	-10.9106
▁тэмдэглэгдсэн	-10.9107
▁байгуулагдсаны	-10.9107
▁урианхай	-10.9108
▁хасагдах	-10.9108
тор	-10.9113
▁уналт	-10.9119
▁Мэн	-10.9121
500	-10.9124
ихэнхдээ	-10.9125
-1-	-10.9128
▁об	-10.9129
II	-10.9131
▁?	-10.9134
▁хүчилтөрөгч	-10.914
▁хүүг	-10.914
▁8.1	-10.9144
▁Кариб	-10.9148
▁доогуур	-10.9148
▁бөмбөгдөгч	-10.9148
▁намайг	-10.9148
po	-10.9149
▁101	-10.9149
▁гарна	-10.9149
▁Жэ	-10.915
▁Перу	-10.9151
дэв	-10.9152
▁тактик	-10.9154
])	-10.9156
▁Цагадай	-10.9158
▁шийтгэх	-10.9158
▁тулгарч	-10.9159
▁Манлай	-10.9159
▁OPC	-10.916
▁хөндийн	-10.9161
▁хөтөлбөрт	-10.9163
▁цолоор	-10.9166
▁4.5	-10.9167
▁тодруулах	-10.9167
▁Хотонт	-10.9169
nt	-10.9169
▁томилох	-10.9169
▁хаанаар	-10.917
▁1,2	-10.917
▁Тусгай	-10.9171
▁Hu	-10.9177
дав	-10.9179
▁хажуу	-10.918
▁цэцэрлэгт	-10.9181
▁малгай	-10.9181
▁Анна	-10.9182
▁довтолгоонд	-10.9189
▁Web	-10.919
ec	-10.9191
▁жигүүр	-10.9192
▁хоосон	-10.9193
▁Ga	-10.9194
▁хотуудыг	-10.9196
▁төлөвлөлт	-10.9196
▁Тоба	-10.9197
▁хатуулаг	-10.9197
▁Бөртэ	-10.9198
ёо	-10.92
▁Кали	-10.9202
сныг	-10.9204
▁Verlag	-10.9215
Ху	-10.9215
▁театрын	-10.9217
▁хэрэгцээ	-10.9218
▁бод	-10.9224
ish	-10.9226
▁тэтгэгч	-10.9234
▁бүтээгдсэн	-10.9234
▁хөгжлийг	-10.9234
▁олддог	-10.9234
▁тэргүүлдэг	-10.9234
▁зочид	-10.9234
▁эзэмшсэн	-10.9234
▁чармайлт	-10.9234
▁дүрслэх	-10.9242
▁хураалт	-10.9246
▁Эмэгтэйчүүд	-10.9248
▁далан	-10.9249
ye	-10.925
α	-10.9251
▁үйлдвэрүүд	-10.9251
▁шир	-10.9252
▁эрэлт	-10.9252
▁Бээжинг	-10.9257
▁Шан	-10.9257
▁математикийн	-10.9259
▁идээ	-10.9259
▁хув	-10.9261
▁Da	-10.9261
▁Part	-10.9264
▁суулгаж	-10.9275
▁TCP	-10.9277
▁нээгдсэн	-10.9277
▁Ka	-10.928
▁хөгжимчин	-10.9282
▁цаашды	-10.9284
▁не	-10.9287
оз	-10.9288
cy	-10.929
▁Сэлэнгийн	-10.9292
▁Эв	-10.9293
▁босогчдын	-10.9293
ep	-10.9295
▁биетэй	-10.9298
▁хэвээрээ	-10.9298
▁Радио	-10.93
▁байсангүй	-10.9304
–18	-10.9305
Дэлхийн	-10.9309
▁Team	-10.9309
▁тэмцлийн	-10.931
Мо	-10.9311
▁гуай	-10.9314
▁тулган	-10.9315
▁дараалл	-10.9319
▁Project	-10.932
▁шөвг	-10.932
▁хөгжүүлсэн	-10.932
▁үзээд	-10.9321
▁Алтанбулаг	-10.9321
▁хэрэглэгчид	-10.9324
▁Гор	-10.9332
оод	-10.9333
раг	-10.9334
▁гадарга	-10.9335
▁хөвүүд	-10.9337
Бүгд	-10.9339
Эцэг	-10.9339
▁бусдаас	-10.9343
2000	-10.9347
▁дарамт	-10.9348
▁Про	-10.9348
▁чадсангүй	-10.9349
▁олжээ	-10.9349
▁Паул	-10.9353
▁торго	-10.9355
▁үндэстнүүд	-10.9362
кийн	-10.9363
▁дугуйн	-10.9363
▁бэлгэдэл	-10.9364
▁дэлгүүр	-10.9364
▁бэйл	-10.9364
▁KBS	-10.9365
▁амархан	-10.9367
дсэн	-10.9367
▁Russia	-10.9369
▁about	-10.9373
▁хүйс	-10.9373
ration	-10.9374
▁зогсохгүй	-10.9382
▁сэтгэлийн	-10.9385
▁гэртээ	-10.9387
▁ed	-10.9388
▁групп	-10.9388
▁өдрүүд	-10.939
▁Бал	-10.9394
ug	-10.9394
▁Ex	-10.9395
▁мөч	-10.9398
▁People	-10.9398
▁Дорнодын	-10.9398
рав	-10.9398
▁Бэй	-10.94
▁Ур	-10.9405
сү	-10.9406
▁Егүзэр	-10.9407
▁Судалгаа	-10.9407
▁Вест	-10.9407
▁илэрсэн	-10.9407
▁нүүсэн	-10.9408
▁урсах	-10.9408
▁дарс	-10.9411
▁хотуудад	-10.9411
▁тавьдаг	-10.9411
раа	-10.9414
▁тогоо	-10.9414
▁менежер	-10.9415
▁төвүүд	-10.9416
▁гаргана	-10.9416
▁эзэлжээ	-10.9416
▁эзэд	-10.9417
гөөр	-10.9417
кар	-10.9421
▁заяа	-10.9422
▁Sch	-10.9422
▁Хүрээний	-10.9425
Үндэстэн	-10.9426
ОХУ	-10.9428
▁судалгаанд	-10.943
gen	-10.9433
▁Кара	-10.9436
▁нүүдэл	-10.9437
▁тушаалд	-10.9437
ai	-10.9439
ser	-10.9439
▁жолоо	-10.9441
▁үх	-10.9442
ini	-10.9442
6%	-10.9442
▁аралд	-10.9444
▁ашгий	-10.9445
таг	-10.9446
▁Sp	-10.9446
▁Wert	-10.9447
rm	-10.9449
▁туслалцаа	-10.9451
▁Дэлгэр	-10.9452
▁дүрсэлсэн	-10.9452
▁нэмэх	-10.9456
▁Ch	-10.9459
▁тушаалаар	-10.946
,000,000	-10.9463
].	-10.9464
▁Очир	-10.9467
Korean	-10.9471
AM	-10.9472
▁Цомог	-10.9474
▁зоос	-10.9478
▁шашинтнууд	-10.9483
▁орнуудтай	-10.9483
▁зүтгэж	-10.9485
▁дэлгэцийн	-10.9495
▁Library	-10.9495
▁уусмал	-10.9495
▁Division	-10.9495
▁Өмнөдэлгэр	-10.9495
▁хийгдэж	-10.9495
▁эзэмшдэг	-10.9496
▁Тэгэхээр	-10.9497
▁Player	-10.9501
ец	-10.9503
▁up	-10.9507
улаан	-10.9507
▁хүчит	-10.9512
7)	-10.952
sp	-10.9522
fa	-10.9523
▁IP	-10.9526
▁тавцанд	-10.953
data	-10.9534
▁бусаар	-10.9536
▁вакцин	-10.9537
▁соло	-10.9538
офф	-10.9538
▁Хондурас	-10.9539
▁цемент	-10.9539
▁консул	-10.9539
▁шороон	-10.9539
▁нэвтэрхий	-10.954
▁илэрхийлдэг	-10.954
ization	-10.9541
▁гишүүнчлэл	-10.9541
▁09	-10.9543
▁хиллэх	-10.9545
sen	-10.9545
чжоу	-10.9546
lan	-10.9546
об	-10.9549
▁UK	-10.9551
▁Или	-10.9555
-28	-10.9557
ерс	-10.9567
▁дундын	-10.957
▁Olympic	-10.957
▁System	-10.957
:00	-10.9573
аза	-10.9574
▁бичээс	-10.9574
▁алдан	-10.9577
vo	-10.958
▁амьдралыг	-10.9582
өвгөрсөн	-10.9583
юн	-10.9583
▁концерт	-10.9584
▁Нөмрөг	-10.9584
▁үзлийг	-10.9584
▁үндэслэсэн	-10.9586
▁дар	-10.9587
▁гамин	-10.9587
▁эсэргүүцэх	-10.9589
▁агаарт	-10.959
▁америкийн	-10.9595
▁аз	-10.9596
▁суулгах	-10.9597
АА	-10.9598
▁гартаа	-10.9602
{	-10.9602
▁Хорватын	-10.9603
▁оронтой	-10.9605
▁философи	-10.9609
ide	-10.9611
▁алдартны	-10.9611
▁үүснэ	-10.9612
▁ж	-10.9613
▁парламентийн	-10.9614
цэцэг	-10.9614
▁томилж	-10.9619
магт	-10.9621
▁хаантай	-10.9622
ёр	-10.9622
▁Бие	-10.9623
▁орчуулж	-10.9625
▁Кугүрё	-10.9628
▁өрсөлдөж	-10.9628
▁Юньнань	-10.9629
▁дэвтэр	-10.9629
▁Head	-10.9629
▁Батла	-10.963
▁Азот	-10.9631
▁явна	-10.9631
ius	-10.9632
▁Standard	-10.9632
▁di	-10.9635
▁Гүюг	-10.9639
▁гавъяат	-10.9639
алгараагүй	-10.9639
▁ангит	-10.964
▁охид	-10.9641
▁Мод	-10.9645
дам	-10.9647
▁хөгжөөн	-10.9648
▁Алжир	-10.965
6-	-10.9651
vi	-10.9652
анг	-10.9656
лөх	-10.9662
:30	-10.9663
▁Who	-10.9663
▁Жижиг	-10.9665
▁ялагч	-10.9668
▁төрөөс	-10.967
▁(27	-10.9671
▁Хабул	-10.9674
▁үйлдвэрлэдэг	-10.9674
▁уян	-10.9676
-30	-10.9677
снээр	-10.9678
▁Украйны	-10.9686
нэг	-10.9687
▁Лев	-10.969
иль	-10.9693
▁1–1	-10.9693
▁сонгогдон	-10.9703
▁Кол	-10.9703
▁тийн	-10.9716
▁Өнөө	-10.9719
▁Үйлдвэр	-10.9722
▁зэрэгтэй	-10.9722
ki	-10.9723
▁гэв	-10.9724
▁(1996)	-10.9725
ick	-10.9726
Удаах	-10.9726
▁бэхи	-10.9727
▁тар	-10.9729
▁Захиргаа	-10.973
мат	-10.973
2008	-10.9731
▁Asian	-10.9731
▁127	-10.9732
▁европ	-10.9734
▁но	-10.9736
лей	-10.9737
▁эрхээ	-10.9739
ийлбэр	-10.9739
▁амьтдын	-10.974
пин	-10.9745
▁олныг	-10.9746
▁найрамдлы	-10.9747
▁%)	-10.9748
▁Ойрадууд	-10.975
▁алаг	-10.975
▁нэгт	-10.9756
▁өөрчлөлтийг	-10.9759
Оюун	-10.9761
▁Bevölkerung	-10.9763
▁Up	-10.9763
▁Сидней	-10.9764
▁үндсэрхэг	-10.9764
▁логик	-10.9764
▁Жун	-10.9764
▁нэвтэрсэн	-10.9764
▁татгалзаж	-10.9764
▁зориулагдсан	-10.9765
▁харагдаж	-10.9765
май	-10.9765
▁төвлөрч	-10.9766
▁театрт	-10.9771
▁гүнд	-10.9771
Ла	-10.9773
▁штабын	-10.9774
▁гарц	-10.9778
▁High	-10.9781
▁бэрх	-10.9782
▁цолтон	-10.9784
▁хүлээх	-10.9785
▁хавр	-10.9788
▁татахад	-10.9788
▁цох	-10.9789
▁умар	-10.9789
▁нөлөөнд	-10.979
Дамдинсүрэн	-10.9794
▁хураан	-10.9797
Залуучуудын	-10.9797
▁7.0	-10.9799
▁үүгээр	-10.9803
▁тогтоц	-10.9806
900	-10.9808
▁Бирм	-10.9808
луулах	-10.9809
▁Михаил	-10.9809
▁архитектур	-10.9809
▁төлөөлөл	-10.9809
▁Цээл	-10.9809
▁Ногай	-10.9809
▁ертөнцөд	-10.981
▁шуурга	-10.9811
эк	-10.9811
▁Нуур	-10.9812
▁унд	-10.9813
▁Мухаммед	-10.9817
ата	-10.9818
▁биелүүлж	-10.982
▁Хаа	-10.9823
ИЙН	-10.9826
▁уулсын	-10.983
▁Хэвлэл	-10.9833
2011	-10.9834
Жерси	-10.9834
▁жүдогийн	-10.9834
▁1904	-10.9835
▁Чимэд	-10.9836
▁хүсэлтээр	-10.9837
▁Кёнги	-10.984
▁удирдлагууд	-10.9843
▁хаалганд	-10.9843
▁зурж	-10.9843
ill	-10.9844
▁1,4	-10.9849
▁автомат	-10.9852
Teams	-10.9853
▁Ганьсү	-10.9855
▁хязгаарлагдмал	-10.9855
▁хэмээсэн	-10.9856
▁мэдэгджээ	-10.9856
▁баримталж	-10.9857
▁номонд	-10.9859
▁Вар	-10.9859
▁үйлдэж	-10.9861
үк	-10.9862
▁Этиоп	-10.9862
▁эрч	-10.9866
▁Давст	-10.9867
▁гайхамшигт	-10.987
▁Po	-10.9872
▁Балканы	-10.9872
▁Уэльс	-10.9872
▁140	-10.9875
▁алах	-10.9877
▁Данзан	-10.9878
Al	-10.9881
▁Урлаг	-10.9881
▁Ва	-10.9881
▁харваа	-10.9883
▁ойлгох	-10.9883
▁del	-10.9883
мж	-10.9885
ino	-10.9886
▁хайртай	-10.9887
▁2009)	-10.9888
▁тооллого	-10.989
▁Bar	-10.9893
▁Уйгар	-10.9895
ا	-10.9896
▁105	-10.9899
▁өсөж	-10.9901
▁шин	-10.9901
▁Батбаяр	-10.9904
▁илрүүлж	-10.9905
▁Курё	-10.9905
▁Min	-10.9907
▁Биеийн	-10.9909
▁бөөм	-10.9912
▁санхүүжилт	-10.9913
▁Скотт	-10.9915
▁1636	-10.9915
1:00	-10.9917
▁сүмд	-10.9917
АН	-10.9918
▁намаас	-10.9924
▁цоо	-10.993
▁долгионы	-10.9934
▁(2012	-10.9936
▁уриа	-10.9939
▁брэнд	-10.9947
▁мэргэжилтнүүд	-10.9947
▁буцааж	-10.9947
▁гоцлол	-10.9947
▁Макао	-10.9947
▁оруулав	-10.9948
▁бокс	-10.9948
▁олзлогдсон	-10.9949
▁боддог	-10.9949
▁бичигдэж	-10.9949
▁бусдад	-10.995
▁Хятадууд	-10.9955
▁Талбай	-10.9956
▁General	-10.9956
▁баатр	-10.9957
▁Тэргүүлэгчдий	-10.9959
▁1,6	-10.996
▁элсүүлсэн	-10.9961
▁нуруунаас	-10.9964
▁Филадельфия	-10.9967
▁удирдлагаар	-10.9967
▁хаах	-10.9969
▁зузаан	-10.9973
чихсан	-10.9976
▁Оюу	-10.998
▁Тор	-10.9982
▁Language	-10.9983
▁яаманд	-10.9983
▁(2016)	-10.9986
▁тунхаг	-10.9988
▁Tu	-10.9988
▁найрлага	-10.9992
кү	-10.9993
▁ханд	-10.9993
▁Physics	-10.9993
▁Madrid	-10.9993
▁үйлдлийг	-10.9993
▁шийдэж	-10.9993
▁айраг	-10.9994
▁дивизийн	-10.9998
▁Замын	-11.0001
IN	-11.0002
3/	-11.0002
▁байгуулснаар	-11.0002
▁Full	-11.0002
▁Тайван	-11.0006
▁томилон	-11.0006
}}}	-11.0011
mar	-11.0011
ери	-11.0012
chi	-11.0018
▁Уильям	-11.0021
▁автобус	-11.0023
▁тэмцсэн	-11.0028
▁Урд	-11.0029
▁оюуны	-11.003
▁ангилалд	-11.0033
yn	-11.0033
▁тулалдсан	-11.0036
▁корпус	-11.0039
▁хурдацтай	-11.0039
▁өргөмжилсөн	-11.004
▁Хайфа	-11.004
▁ирлээ	-11.0041
▁тооцдог	-11.0041
▁мэдсэн	-11.0041
▁Гүрёо	-11.0041
▁суугчид	-11.0047
▁талт	-11.0047
гдсан	-11.0047
▁Film	-11.0048
▁Цэцэн	-11.0048
▁үнэндээ	-11.0052
чны	-11.0057
▁үсэгт	-11.0057
fr	-11.0057
елл	-11.006
▁Яам	-11.0061
▁цаазын	-11.0066
лээд	-11.0066
хал	-11.0067
аст	-11.0069
▁харуулах	-11.0073
▁160	-11.0075
хой	-11.0076
▁диск	-11.0076
▁учр	-11.0077
Хо	-11.0078
▁нууцаар	-11.0078
▁Russian	-11.008
▁Европо	-11.0083
онирхолтой	-11.0085
Ма	-11.0085
▁болзошгүй	-11.0086
▁эзэмшиж	-11.0086
бур	-11.0087
▁гарьд	-11.0087
▁it	-11.0089
▁Ховордолт	-11.0089
▁(1991)	-11.009
▁Йорк	-11.0093
▁хэрэглээнд	-11.01
▁бослогын	-11.01
▁мэдрэлийн	-11.0101
▁Pro	-11.0102
iz	-11.0105
5,000	-11.0106
▁чуулганд	-11.0106
▁Бэрх	-11.0107
▁зөөл	-11.011
ok	-11.0113
ISO	-11.0117
▁зовлон	-11.012
▁Германд	-11.0121
▁Хятадтай	-11.0121
лархай	-11.0121
▁адагт	-11.0123
▁Зохиолч	-11.0126
ā	-11.0131
▁deal	-11.0132
▁Society	-11.0133
▁Октябрийн	-11.0133
▁ноцтой	-11.0133
▁Чухам	-11.0133
▁хурлаас	-11.0133
▁Баянбулаг	-11.0134
▁гэгдэж	-11.0134
▁Union	-11.0134
▁хамаг	-11.0134
▁2011/12	-11.0135
▁хажуугаар	-11.0137
▁Бишкек	-11.014
оосоо	-11.014
Чойбалсан	-11.0146
▁ад	-11.0149
▁Хорчин	-11.0152
▁бэлгэдл	-11.0155
▁шатдаг	-11.0156
лю	-11.0157
▁элсэх	-11.0158
нэгдлийг	-11.0159
лга	-11.0159
▁хамтлагын	-11.0161
Ус	-11.0162
▁цэргээр	-11.0166
▁хүндийг	-11.0166
рак	-11.0169
▁Sea	-11.0174
▁болгоно	-11.0176
▁өсөх	-11.018
▁Atomic	-11.018
▁EP	-11.018
▁нэвтрэх	-11.018
▁Барга	-11.018
бл	-11.0181
▁танилцуулсан	-11.0182
линг	-11.0183
▁Дун	-11.0184
▁Гэрээ	-11.0184
▁эрхэлсэн	-11.0185
▁хамарч	-11.019
▁хөгжих	-11.019
▁Ханддорж	-11.0191
▁бүлгүүд	-11.0192
ош	-11.0193
▁1906	-11.0198
▁тэндээс	-11.0199
▁Өрсөлдөгч	-11.0202
ели	-11.0205
▁Тас	-11.0205
▁Бур	-11.0205
Урт	-11.0214
▁оруулалтын	-11.0215
▁Ро	-11.0216
▁өлгий	-11.022
▁оноог	-11.022
▁өнгөт	-11.0224
-29	-11.0225
γ	-11.0228
▁Бүрэгхангай	-11.0228
▁завсрын	-11.0228
▁оролдож	-11.0228
▁зүтгэл	-11.0228
▁зэмсэг	-11.0228
▁мэднэ	-11.0229
▁Михаэль	-11.0229
▁дагах	-11.0231
▁Торгууд	-11.0231
▁Киевийн	-11.0233
▁Афин	-11.0234
▁Der	-11.0235
▁чулууны	-11.0235
▁ойролцоох	-11.0236
▁шийдэл	-11.0236
▁нийтээр	-11.0237
ley	-11.0237
wa	-11.0238
▁коллеж	-11.024
ana	-11.0242
▁цагдаа	-11.0242
вэй	-11.0247
▁МОНЦАМЭ	-11.025
▁тавина	-11.0251
элсэн	-11.0251
▁үйлдэх	-11.0252
ком	-11.0256
▁Сүмбэр	-11.0258
Манчестер	-11.0259
Манай	-11.026
ology	-11.0261
▁Хасар	-11.0264
▁данс	-11.0269
▁хуульт	-11.0271
▁цөөхөн	-11.0275
▁мян	-11.0276
▁Автомашин	-11.0276
▁босгосон	-11.0276
▁гараанд	-11.0277
▁Хас	-11.0278
▁хувьцаа	-11.0281
▁Есүхэй	-11.0283
▁язгууртны	-11.0283
▁1260	-11.0284
▁ойд	-11.0288
▁хандан	-11.0288
▁сонсох	-11.0292
лэ	-11.0293
▁Пе	-11.0294
▁тохой	-11.0298
▁энерг	-11.0301
ative	-11.0303
▁булчин	-11.0305
Football	-11.0307
▁шилжүүлж	-11.0309
▁хийг	-11.0322
▁Agency	-11.0323
▁ТОВЧ	-11.0323
▁яаралтай	-11.0323
▁Тарвагатай	-11.0323
fi	-11.0323
▁Аливаа	-11.0324
ХОН	-11.0324
▁холбогддог	-11.0324
▁судлаачдын	-11.0324
▁тайлсан	-11.0325
▁Guide	-11.0326
▁хамба	-11.0327
▁тайлбарлаж	-11.0329
▁тогтоов	-11.0329
▁1206	-11.033
▁Багш	-11.0331
▁харвал	-11.0333
▁түшмэд	-11.0334
▁өгүүлбэр	-11.0336
▁Казах	-11.0336
▁сүлжээг	-11.0337
▁2-3	-11.0338
▁-1	-11.034
сум	-11.0346
▁his	-11.035
▁ширээ	-11.0356
▁хүчингүй	-11.0357
▁харуулын	-11.0357
▁over	-11.0358
▁91	-11.036
▁баримал	-11.0361
▁хят	-11.0363
▁Өсөхбаяр	-11.0367
▁нуурт	-11.037
▁гагц	-11.0371
▁Эрчим	-11.0372
▁даян	-11.0373
Й	-11.0373
▁Анжелес	-11.0375
▁Петер	-11.0375
▁устай	-11.0376
▁төлөөлөн	-11.0377
▁хэлэхдээ	-11.0377
▁үйлдвэрлэлд	-11.0378
-1990	-11.0385
▁таслалт	-11.0386
▁хилээр	-11.0387
▁залгамжлах	-11.0388
▁сэр	-11.0388
▁анхан	-11.0389
бри	-11.0391
if	-11.0392
▁сургуулиа	-11.0394
%),	-11.0399
all	-11.04
▁Si	-11.0401
БНСУ	-11.0404
Хувьсгалт	-11.0407
-24	-11.0408
юань	-11.0409
In	-11.0412
лбар	-11.0412
ach	-11.0414
▁ё	-11.0416
тэл	-11.0416
ше	-11.0417
▁хуваадаг	-11.042
▁гадаргын	-11.042
▁Studies	-11.042
▁өртсөн	-11.042
▁гэлээ	-11.042
▁Атлетик	-11.0421
▁халдан	-11.0422
▁дэмжигчид	-11.0422
▁тэсвэртэй	-11.0422
▁хуралдаж	-11.0423
▁(2007	-11.0423
▁таарч	-11.0424
▁Есөнтөмөр	-11.0426
▁Тоглогчид	-11.0426
▁Бохем	-11.0428
▁үжин	-11.0429
▁комиссар	-11.0432
▁хориглолт	-11.0434
tan	-11.0434
▁гадуур	-11.0434
▁Сэр	-11.0437
▁Тоо	-11.0438
▁харгис	-11.0442
лүүд	-11.0442
▁өсвөрийн	-11.0442
тин	-11.0443
▁бүтээлд	-11.0444
▁хийсний	-11.0448
▁Финикс	-11.0451
▁хайрцаг	-11.0452
▁Сирийн	-11.0452
чир	-11.0455
хуа	-11.0462
▁Лав	-11.0463
▁илгээжээ	-11.0464
▁Уорриорз	-11.0468
▁орчмоор	-11.0468
▁тансаг	-11.0468
▁Фернандес	-11.0468
▁Шаньси	-11.0468
▁Ингэхдээ	-11.0469
▁буцсан	-11.0472
▁хойноос	-11.0473
чилсэн	-11.0474
▁tag	-11.0476
▁Хос	-11.0478
▁ирэн	-11.0482
▁иш	-11.0483
▁Дарь	-11.0483
▁хүчлийн	-11.0484
▁зохиох	-11.0485
▁ион	-11.0488
▁бичлэгийн	-11.049
тлоо	-11.0492
▁(2006	-11.0492
▁чимэглэл	-11.0493
so	-11.0493
▁болохоос	-11.0495
▁зориулалтаар	-11.0497
▁15,000	-11.0498
юр	-11.05
▁мөрөнд	-11.0501
кор	-11.0505
▁Модун	-11.0506
▁үнэгүй	-11.0508
мор	-11.0509
▁шалгалт	-11.051
▁чанд	-11.0513
▁буц	-11.0513
скийн	-11.0514
▁Элизабет	-11.0517
▁нөлөөлөл	-11.0517
▁Поттэр	-11.0517
▁ололт	-11.0517
▁115	-11.0517
сс	-11.0517
▁байгуулдаг	-11.052
▁Facebook	-11.0522
▁Монголбанк	-11.0522
▁Косовог	-11.0524
▁Багууд	-11.0524
▁3.6	-11.0526
Нп	-11.0526
▁адилгүй	-11.0527
▁CO	-11.0528
Ca	-11.0529
лөг	-11.053
▁буудай	-11.053
дэд	-11.053
▁Бан	-11.0531
▁Dr	-11.0532
▁өөрчлөлтүүд	-11.0533
▁олонхи	-11.0537
жсэн	-11.0539
▁Урианхайн	-11.0541
IP	-11.0542
▁эмнэлэгт	-11.0551
▁хошууч	-11.0552
▁сүмо	-11.0552
▁дайтах	-11.0553
Америкийн	-11.0554
▁ажиллагаатай	-11.0555
▁Of	-11.0557
англи	-11.0557
▁2015)	-11.0562
▁Пүрэв	-11.0562
▁(31	-11.0564
▁шал	-11.0564
▁захиргаат	-11.0564
▁бүрэлдэн	-11.0565
үртгэсэн	-11.0566
▁боловсронгуй	-11.0566
▁зэргэлдээ	-11.0566
▁2010/11	-11.0566
ref	-11.0566
▁номлол	-11.0567
лагдах	-11.0568
▁задрах	-11.0573
лээр	-11.0574
▁Мотор	-11.0576
▁үй	-11.0577
берт	-11.0577
же	-11.0578
▁хэлнүүд	-11.0578
▁НАТО	-11.058
▁Plant	-11.058
▁Огноо	-11.0581
ска	-11.0582
▁хороосон	-11.0585
▁алсан	-11.0586
▁хандив	-11.0586
mon	-11.0595
▁мэдээж	-11.0595
▁хүрэхгүй	-11.0596
?)	-11.0601
–15	-11.0601
▁Томоохон	-11.0603
▁агуулж	-11.0605
▁Гарал	-11.0609
хо	-11.0612
▁тэндээ	-11.0615
▁институт	-11.0615
▁хөрөнгийг	-11.0615
▁2010–11	-11.0615
▁АЛДАР	-11.0615
▁гүйцэтгэгч	-11.0615
▁сэргэж	-11.0615
▁хангасан	-11.0616
▁геометр	-11.0616
▁тунхагласан	-11.0617
▁өргөтгөх	-11.0618
–21	-11.0622
▁нимгэн	-11.0622
▁хожуу	-11.0623
▁далавч	-11.0625
▁мэдрэгч	-11.0627
▁блок	-11.0631
oj	-11.0635
▁Түрэгүүд	-11.0638
▁San	-11.0641
▁Цэрэг	-11.0642
▁үзүүлэлтүүд	-11.0645
метр	-11.0646
tr	-11.0648
▁Абдул	-11.0648
▁салбарыг	-11.0649
og	-11.0649
▁бүтээжээ	-11.0651
моль	-11.0651
Танил	-11.0652
Португал	-11.0652
▁Mongolian	-11.0652
око	-11.0654
▁хими	-11.0655
▁Mark	-11.0661
▁казах	-11.0661
▁академи	-11.0663
▁эзэмшилд	-11.0664
ины	-11.0665
▁Хонгирад	-11.0665
▁Үндэстнүүд	-11.0665
▁зөвшөөрөгдсөн	-11.0665
▁Кевин	-11.0665
▁хавиар	-11.0665
▁төвөд	-11.0666
▁Техас	-11.0671
▁Төвтөмөр	-11.0673
мэ	-11.0674
▁.8	-11.0678
▁(2013	-11.0679
▁Хи	-11.0681
▁Ёши	-11.0681
▁амжилтууд	-11.0682
дэж	-11.0685
▁төрт	-11.0685
хү	-11.0687
▁Юу	-11.0692
Зөвлөлтийн	-11.0693
▁нэгээр	-11.0697
▁Наран	-11.0697
▁un	-11.0698
Дизель	-11.0702
▁ургамалд	-11.0702
▁мэдлээ	-11.0705
▁амны	-11.0709
ischen	-11.0712
▁Алматы	-11.0714
▁төслүүд	-11.0714
ː	-11.0714
▁толгод	-11.0714
▁харилцаж	-11.0714
▁ӨЗО	-11.0714
▁Tactic	-11.0715
▁барилдаж	-11.0715
вэр	-11.0716
▁цутгах	-11.0716
▁линк	-11.0716
▁хэрэгжүүлсэн	-11.0716
▁хамгаалсан	-11.0717
▁дангаараа	-11.072
▁бүлгэм	-11.072
▁харьцаатай	-11.0721
▁зээлийг	-11.0722
▁насаа	-11.0723
▁Амьдрал	-11.0723
▁хэллэг	-11.0724
Солонгос	-11.0724
▁East	-11.0726
▁ганцаараа	-11.073
▁нутгийнхаа	-11.073
длийн	-11.073
▁Lu	-11.0733
▁үсэгтэй	-11.0746
▁Индиана	-11.0747
▁багшийн	-11.0748
ting	-11.0748
July	-11.0753
пу	-11.0756
▁хөдөлгөөнт	-11.0761
▁(2015)	-11.0763
▁4000	-11.0765
▁тарааж	-11.0765
▁гадас	-11.0765
▁зохицох	-11.0765
eu	-11.0766
▁2009–10	-11.0767
▁“...	-11.0769
дас	-11.0769
кт	-11.0769
▁Post	-11.0772
▁Но	-11.0772
8)	-11.0773
лас	-11.0773
▁Зайсан	-11.0774
▁одсон	-11.0777
▁хэмээжээ	-11.0777
гэж	-11.078
үд	-11.0783
уудаар	-11.0783
▁тавин	-11.0784
атор	-11.0785
▁үйлчилж	-11.0787
▁цуглаан	-11.0787
▁Цэдэв	-11.0788
▁дайлах	-11.0795
▁Statistic	-11.0797
▁жигд	-11.0797
▁1368	-11.0804
▁галын	-11.0804
сек	-11.0806
▁чийг	-11.0807
хят	-11.081
▁Эндээс	-11.081
ып	-11.0813
уль	-11.0814
་	-11.0815
▁2012/13	-11.0815
▁оролцов	-11.0815
▁цайвар	-11.0815
▁дэмжлэгтэйгээр	-11.0816
▁Говьсүмбэр	-11.0818
▁технологийг	-11.0819
▁Мягмар	-11.0821
▁холбооноос	-11.0822
▁Кувейт	-11.0823
▁хүүгээ	-11.0824
▁Сүй	-11.0825
▁захын	-11.0827
▁Mi	-11.0829
▁болгоход	-11.0831
▁1,3	-11.0832
▁наяд	-11.0834
▁системтэй	-11.0835
лэдэг	-11.0837
▁өргөмжилжээ	-11.0837
▁(20	-11.0841
▁Ватикан	-11.0842
▁Цом	-11.0843
▁Хамтлагийн	-11.0844
То	-11.0846
▁гавьяаны	-11.0848
▁Тамир	-11.0852
▁үүсчээ	-11.0852
▁Балтын	-11.0853
▁Лениний	-11.0854
▁Зэрэг	-11.0855
Баян	-11.0855
▁удирдлаган	-11.0855
▁Далбаа	-11.0856
▁голоор	-11.0857
▁дэмжигч	-11.0858
▁шилжилтийн	-11.086
▁фу	-11.0861
▁Ge	-11.0862
▁хүлэг	-11.0864
▁сонсоод	-11.0865
▁Отгон	-11.0865
▁шаардаж	-11.0866
▁залгадаг	-11.0866
▁харьяалагдах	-11.0866
▁мэдэгдэл	-11.0867
ara	-11.0867
▁Стив	-11.0868
▁Africa	-11.0869
▁Югославын	-11.0869
▁ол	-11.087
▁хэсгээрээ	-11.0871
▁сүүлч	-11.0871
▁багасгах	-11.0874
cn	-11.0874
▁олзлон	-11.0875
▁харъяа	-11.0876
▁үхсэн	-11.0877
▁Daily	-11.0877
▁шарх	-11.0877
▁одоог	-11.0878
▁Лам	-11.0879
▁хүзүү	-11.0883
Ган	-11.0885
▁эцгийн	-11.0891
цин	-11.0892
ым	-11.0896
▁Кирилл	-11.0897
Үд	-11.0897
▁цагираг	-11.0901
▁өмсгөл	-11.0901
▁урьдын	-11.0901
▁ху	-11.0908
луу	-11.0908
▁Хенри	-11.091
ren	-11.091
лс	-11.0911
▁хэмжих	-11.0912
угуул	-11.0916
▁Шаньдун	-11.0916
▁өгөгдсөн	-11.0916
▁Peter	-11.0916
▁нэмэгдүүлж	-11.0917
▁хүрээлэгдсэн	-11.0917
▁тухайгаа	-11.0917
▁2.7	-11.0918
▁зөрүү	-11.0919
▁түлхэн	-11.092
▁Дортмунд	-11.0921
ted	-11.0921
▁сэтгэлгээ	-11.0924
▁Хамтлаг	-11.0924
▁Мингийн	-11.0925
жо	-11.0927
▁эсүүд	-11.093
▁цаасан	-11.0931
▁багтаамжтай	-11.0931
форд	-11.0931
▁хавтан	-11.0931
▁залуучууд	-11.0933
чуудыг	-11.0935
▁стратеги	-11.0938
▁музейн	-11.094
▁бичил	-11.0943
▁1–2	-11.0945
▁дэвсгэрүүд	-11.0946
▁Товчоо	-11.0946
элж	-11.0951
▁буйг	-11.0952
▁өг	-11.0955
лэлт	-11.0955
лүүлж	-11.0956
▁per	-11.0957
бүрэн	-11.0958
▁гарвал	-11.0959
▁хугацаандаа	-11.096
6)	-11.0966
▁ойлгомжтой	-11.0967
pop	-11.0967
▁анхаарах	-11.0967
▁дурдвал	-11.0967
▁хувирсан	-11.0968
▁хэрэв	-11.0969
▁илрэл	-11.0972
▁үзүүлэлтээр	-11.0972
▁School	-11.0975
▁өрсөлдөөн	-11.0976
▁улира	-11.0978
▁Car	-11.098
хам	-11.098
▁Sign	-11.0981
9)	-11.0983
Нэг	-11.0983
ров	-11.0985
▁Martin	-11.0987
▁бусдын	-11.0993
▁хэрэглэн	-11.0994
▁холын	-11.1001
▁Хэн	-11.1002
▁Бичиг	-11.1003
▁Bi	-11.1004
▁эндээс	-11.1004
▁тува	-11.1005
▁уург	-11.1005
%)	-11.1007
▁байдлаа	-11.1009
und	-11.1015
▁хүрээд	-11.1015
▁le	-11.1017
Миний	-11.1018
▁Interactive	-11.1018
▁валют	-11.1018
▁буулгах	-11.1018
▁тогтоно	-11.1019
▁гүйцэтгэнэ	-11.1019
▁хэвлэгдсэн	-11.1019
▁нисдэг	-11.102
▁шийдвэрлэсэн	-11.1021
▁Сүбээдэй	-11.1022
▁нэмэгдэх	-11.1022
▁хамгаалан	-11.1022
▁Хүснэгт	-11.1023
нуудын	-11.1024
▁хүрээгүй	-11.1025
▁Че	-11.1027
▁мэдээлж	-11.1033
▁хэрэглэгчийн	-11.1034
▁оноосон	-11.1035
▁Тариат	-11.1037
▁дасгалжуулагчид	-11.1038
▁Бутан	-11.1042
▁zu	-11.1044
▁Шү	-11.1046
▁завсар	-11.1048
▁хороог	-11.1048
▁шашинтай	-11.1054
▁Боб	-11.1056
▁тахлын	-11.1057
-25	-11.1062
Ко	-11.1062
▁German	-11.1064
▁төрөх	-11.1065
Тайз	-11.1065
бин	-11.1067
▁Ельцин	-11.107
지	-11.107
▁Клипперс	-11.107
▁Арвайхээр	-11.107
▁хавсран	-11.107
▁тунхаглаж	-11.107
▁зугтаж	-11.1071
▁үнэг	-11.1071
фи	-11.1072
▁Генерал	-11.1075
▁1200	-11.1075
young	-11.1078
▁мэс	-11.1079
▁бензин	-11.1079
▁хуралдай	-11.1082
▁1897	-11.1082
▁товчооны	-11.1083
▁Абахай	-11.1084
▁тэргүүнээр	-11.1084
ff	-11.1085
аугаа	-11.1086
щ	-11.1087
▁баримтлах	-11.1087
ah	-11.1089
ل	-11.1089
▁томилжээ	-11.1089
▁Люксембург	-11.1093
▁Хятадаас	-11.1094
▁тогложээ	-11.1096
▁хүрээтэй	-11.1096
Төр	-11.1096
▁алтай	-11.1099
ста	-11.11
▁артиллерийн	-11.11
br	-11.1102
▁товчоонд	-11.1103
▁нурууд	-11.1104
ач	-11.1109
жир	-11.111
Төвөдийн	-11.111
▁хавьд	-11.1111
he	-11.1113
600	-11.1113
Аргентин	-11.1114
аймгийн	-11.1114
▁уулз	-11.1114
▁үзэгдл	-11.1118
▁Нарны	-11.1119
▁хориглосон	-11.1122
▁бяцхан	-11.1122
▁.7	-11.1122
▁артай	-11.1123
▁томилогдон	-11.1124
▁бүжигчин	-11.1124
▁тушаалтан	-11.1125
▁Зах	-11.1125
▁Луис	-11.1126
▁ажиллана	-11.1128
▁Ашигт	-11.1129
▁ерөнхийлөн	-11.113
−	-11.1132
▁тооцох	-11.1134
▁Катар	-11.1135
▁Сая	-11.1136
▁пулемёт	-11.1137
▁өргөх	-11.1138
▁зо	-11.114
▁Будда	-11.1141
▁Денвер	-11.1142
▁аялагч	-11.1143
▁Эвертон	-11.1146
▁Ажил	-11.1147
илл	-11.1149
▁Art	-11.1149
▁Хол	-11.115
▁гүрэнд	-11.115
▁барин	-11.115
Төрөл	-11.1152
али	-11.1154
▁устөрөгч	-11.1154
▁колон	-11.1156
▁Сонгуулий	-11.1157
▁дурьдсан	-11.116
▁Шах	-11.1162
ᠠ	-11.1162
▁мэдэгдэх	-11.1166
Иргэн	-11.1166
UTC	-11.1168
2,0	-11.1168
Нью	-11.1169
▁IX	-11.1169
саг	-11.117
▁хэрэглэгдэх	-11.1171
▁14-17	-11.1173
▁Антарктид	-11.1174
▁Махмуд	-11.1174
▁салшгүй	-11.1174
▁нөхөд	-11.1174
▁хосолсон	-11.1174
▁тууштай	-11.1178
▁улстөр	-11.1178
▁Африкт	-11.1178
▁Алдр	-11.1179
▁ургамлууд	-11.1181
▁Синан	-11.1183
▁ажиллуулж	-11.1184
Го	-11.1184
▁Шилла	-11.1185
▁хилс	-11.1186
▁France	-11.1188
▁Men	-11.1189
▁удирдлаг	-11.1191
▁Ис	-11.1195
▁Жао	-11.1196
жэ	-11.1196
▁Найруулагч	-11.1199
▁Mongol	-11.12
▁Ti	-11.1204
▁түүхэндээ	-11.1205
▁оролцоогүй	-11.1209
2.5	-11.1212
▁цонх	-11.1212
амтардаг	-11.1216
▁зурах	-11.1219
▁240	-11.1219
▁Эрүү	-11.1223
Зүүн	-11.1224
▁Нарийнтээл	-11.1226
▁евро	-11.1226
over	-11.1226
ный	-11.1226
▁сайжруулсан	-11.1227
▁орчуулсан	-11.1227
▁Коста	-11.1229
▁чөлөөг	-11.123
▁тайлан	-11.1233
▁дийлж	-11.1237
ят	-11.1238
▁Ромео	-11.124
луулж	-11.1241
лл	-11.1244
▁Энэтхэгт	-11.1245
▁Бүр	-11.1245
▁Young	-11.1247
▁ю	-11.1247
▁Же	-11.1248
▁нөөцтэй	-11.1249
▁Нил	-11.125
▁цаасны	-11.125
▁явуулжээ	-11.1252
▁киног	-11.1255
we	-11.1255
▁1241	-11.1256
▁Милуоки	-11.1256
▁Сөүлийн	-11.1261
,700	-11.1261
гаараа	-11.1263
▁бэрхшээл	-11.1264
,200	-11.1269
▁байгууламжийн	-11.1269
▁сувг	-11.127
▁изотоп	-11.1271
이	-11.1272
▁Чулуут	-11.1274
▁магадлал	-11.1276
Өнжүүл	-11.1279
▁Turner	-11.1279
▁Ташкент	-11.1279
▁сацуу	-11.1279
▁Исланд	-11.1279
▁(1994)	-11.1279
▁Евразийн	-11.128
▁дээшлүүлэх	-11.128
▁Зүүнбаян	-11.128
овын	-11.1281
▁Дундаж	-11.1281
▁өвчнөөр	-11.1281
▁сударт	-11.1281
▁Даум	-11.1282
▁Australian	-11.1282
▁салсан	-11.1284
ise	-11.1286
хө	-11.1287
▁барж	-11.1287
▁байрлуулсан	-11.1287
▁баатарлаг	-11.1288
su	-11.129
▁ороогүй	-11.1292
2013	-11.1296
▁зөвшөөрөх	-11.1297
▁Математик	-11.1297
▁Ахмед	-11.13
ien	-11.1301
▁зуржээ	-11.1303
▁Гурав	-11.1303
▁Жек	-11.1308
вес	-11.1312
▁хөлс	-11.1312
сүрэнгийн	-11.1315
лен	-11.1317
▁хутга	-11.1318
▁ноёрхол	-11.1319
▁хэлхээ	-11.1321
▁хэрэгцээг	-11.1321
тоо	-11.1323
700	-11.1325
▁менежмент	-11.1325
▁Генийн	-11.1325
Энх	-11.1325
▁Эш	-11.1326
▁Лихтенштайн	-11.1328
▁Жигжид	-11.1328
▁2008)	-11.1329
шо	-11.133
▁журмыг	-11.1332
▁Тоорил	-11.1332
▁Иракийн	-11.1332
▁найрсаг	-11.1332
▁Алфа	-11.1332
▁суралцсан	-11.1334
▁туурь	-11.1334
▁санг	-11.1334
▁Эхлээд	-11.1334
▁арвин	-11.1334
▁хувилгаан	-11.1334
▁таатай	-11.1335
▁нийгэмлэгийн	-11.1335
▁Скола	-11.1336
«	-11.1339
▁түрүүлэн	-11.1339
ür	-11.1344
еб	-11.1346
–25	-11.1346
▁довтолгооны	-11.1346
▁(26	-11.1347
▁нутгууд	-11.135
▁гэ	-11.1351
хятад	-11.1352
шар	-11.1353
▁цомгууд	-11.1356
ини	-11.1357
▁Jung	-11.1358
▁барах	-11.1361
▁нүүх	-11.1362
▁Порт	-11.1365
▁эрдэн	-11.1366
дол	-11.1369
▁Булл	-11.1369
▁Юта	-11.137
hi	-11.1373
▁Can	-11.1375
ейн	-11.1378
▁Оростой	-11.138
дахь	-11.138
▁зав	-11.138
▁програмууд	-11.138
▁лал	-11.1382
▁объект	-11.1384
▁урсаж	-11.1385
▁Турбо	-11.1385
▁Light	-11.1386
▁үзүүлэн	-11.1386
▁дэлхийг	-11.1386
▁Ni	-11.1386
-60	-11.1386
▁Дүүрэг	-11.1387
▁Жозеф	-11.1387
▁ажиллуулах	-11.1387
▁тогтдог	-11.1388
▁утаа	-11.1388
▁Буллз	-11.139
tri	-11.1392
▁барилгууд	-11.1393
▁язгууртнууд	-11.1393
▁тайзны	-11.14
три	-11.1402
▁Бидний	-11.1406
▁(2008	-11.141
▁Хиагтын	-11.1411
▁Кавказ	-11.1414
▁102	-11.1414
шань	-11.1416
▁TV	-11.1417
▁индекс	-11.1417
▁удирдлагад	-11.1419
▁Тэмцээн	-11.1419
жон	-11.142
ход	-11.1422
▁комиссын	-11.1422
▁багтаамж	-11.1423
▁төсөв	-11.1427
▁2-1	-11.1429
▁109	-11.1433
Цагаан	-11.1435
1)	-11.1438
ins	-11.1438
▁Intelligence	-11.1438
▁Washington	-11.1438
▁Гарсиа	-11.1438
▁Херцеговина	-11.1438
19)	-11.1438
▁пиньинь	-11.1438
▁жүжигчний	-11.1438
▁Хармөрөн	-11.1439
▁нийлүүлж	-11.144
тов	-11.1442
▁сэдвээр	-11.1443
нуудыг	-11.1445
▁онлайн	-11.1445
▁Пунцаг	-11.1446
▁зонхилох	-11.1452
▁дүүс	-11.1452
▁дууссаны	-11.1456
my	-11.1456
▁дэв	-11.1457
▁Голден	-11.1461
▁Richard	-11.1462
▁Баяннуур	-11.1463
▁орчныг	-11.1464
▁авсны	-11.147
▁таамаг	-11.1471
▁хандлагатай	-11.1472
даггүй	-11.1472
▁наран	-11.1477
▁Морин	-11.1477
▁Камбож	-11.1477
▁бүрдэл	-11.1478
▁руугаа	-11.1479
▁суудалд	-11.1481
old	-11.1482
▁10,000	-11.1483
▁Er	-11.1487
▁захиргааг	-11.1489
▁от	-11.1489
▁комби	-11.1492
▁дурсамж	-11.1492
王	-11.1492
рат	-11.1492
▁Дубай	-11.1493
▁Хоол	-11.1493
▁болоогүй	-11.1493
▁боловсруулалт	-11.1494
▁шархадсан	-11.1494
лагдаж	-11.1494
▁судалсан	-11.1494
▁очжээ	-11.1496
▁Жанжин	-11.1498
▁Сиэтл	-11.15
▁бүрийг	-11.15
▁Иргэдийн	-11.1502
▁гэмтэл	-11.1505
▁нүүлгэн	-11.1506
Бид	-11.1507
▁ургац	-11.1508
▁харилцаагаа	-11.151
▁мэдээгээр	-11.1514
▁Орландо	-11.1516
өм	-11.1517
▁Хэт	-11.152
▁2005,	-11.152
▁оноогоор	-11.1521
▁фосфор	-11.1523
▁дуулах	-11.1523
Улаанбаатар	-11.1523
▁харъяанд	-11.1527
▁.5	-11.1527
▁газруудад	-11.1528
bu	-11.1528
▁зарлах	-11.153
▁цаана	-11.1533
▁Фа	-11.1539
поп	-11.154
▁дизайн	-11.154
▁удаад	-11.1544
▁Педро	-11.1546
▁төгсөөд	-11.1547
▁хө	-11.1547
▁ашиглагдаж	-11.1547
▁мин	-11.1547
▁зур	-11.1549
мол	-11.155
Ян	-11.155
▁pro	-11.1558
▁Гэндэн	-11.156
▁Тур	-11.156
▁Ерөнхийдөө	-11.1561
▁график	-11.1562
▁байгуулалттай	-11.1567
▁ТВ	-11.1567
▁хит	-11.1567
▁(2001	-11.1568
▁XII	-11.157
12-	-11.1571
▁Бол	-11.1575
▁Ko	-11.1581
▁Гадаадын	-11.1582
▁АГ	-11.1583
үйц	-11.1585
▁Венесуэл	-11.1586
▁Дашдорж	-11.1589
▁Кинг	-11.159
▁Түүнд	-11.159
▁сурвалжууд	-11.159
▁Три	-11.1593
▁хуяг	-11.1595
ьер	-11.1596
gan	-11.1597
Пуэрто	-11.1598
Шилдэг	-11.1598
▁ахуйд	-11.16
9-	-11.16
▁бошигт	-11.16
▁Ховард	-11.16
▁үргэлжлэн	-11.16
▁больсон	-11.16
▁сүнс	-11.1601
▁хорхой	-11.1602
▁Дотор	-11.1602
▁торгууд	-11.1602
▁site	-11.1602
0-	-11.1603
▁Зүчи	-11.1604
▁тайлбарласан	-11.1605
▁авлаа	-11.1605
US	-11.1605
▁хурим	-11.1606
▁Мьянмар	-11.1606
▁бодитой	-11.1606
▁Худалдаа	-11.1606
▁үнээр	-11.1607
▁Анагаах	-11.1607
▁төгсчээ	-11.1608
Чин	-11.1608
▁гардан	-11.161
▁From	-11.1611
▁Хонда	-11.1611
▁Магсаржав	-11.1618
mann	-11.1619
▁Монголии	-11.162
▁тусалж	-11.1621
ынхан	-11.1622
▁христ	-11.1623
эрэгтэй	-11.1623
▁Тэмцээний	-11.1624
▁шав	-11.1625
▁Жонс	-11.1625
▁туршлагатай	-11.1627
▁хулгай	-11.1627
▁(5)	-11.1628
▁шавьж	-11.1628
▁1691	-11.1629
▁өсвөр	-11.163
–10	-11.1631
ert	-11.1633
▁өртөг	-11.1634
▁XIV	-11.1635
рид	-11.1635
▁Дэн	-11.1636
▁(1993)	-11.1636
▁350	-11.164
▁Сал	-11.1645
▁1901	-11.1647
▁Эрде	-11.1648
▁Нур	-11.1649
▁King	-11.1649
Юань	-11.1654
▁Хэрэйд	-11.1655
▁дизель	-11.1655
▁Бүтэц	-11.1655
▁Эдвард	-11.1655
▁флот	-11.1655
▁дуурь	-11.1656
▁хожил	-11.1656
▁нийлүүлэлт	-11.1658
▁тоглохдоо	-11.1658
▁Оролцоогүй	-11.1658
▁мо	-11.1659
▁116	-11.1664
▁еврейчүүд	-11.1665
▁ялагдан	-11.1671
▁хай	-11.1672
▁хүндрэл	-11.1672
▁гавъяа	-11.1673
▁илгээв	-11.1674
▁банкууд	-11.1675
▁2006)	-11.1676
▁хараад	-11.1677
▁1896	-11.1678
▁Download	-11.168
▁ирсний	-11.1684
▁Нурхачи	-11.1685
Серби	-11.1685
▁XV	-11.1695
▁Ганзориг	-11.1695
асан	-11.1696
▁Girls	-11.1696
▁(2009	-11.1697
Хаан	-11.1697
▁хажууд	-11.1699
gr	-11.1704
ое	-11.1705
▁2007,	-11.1707
▁тэмцэгч	-11.1708
Ерөнхий	-11.1708
дөх	-11.171
▁тойрсон	-11.1711
666	-11.1711
▁Викториа	-11.1712
▁call	-11.1713
▁буурсан	-11.1713
▁Хасан	-11.1714
▁худалдаачид	-11.1714
▁Шикай	-11.1717
▁идэвхит	-11.1717
▁Power	-11.1718
▁таслах	-11.1718
▁ажилчид	-11.1719
лдаг	-11.172
▁хороож	-11.1723
▁0–0	-11.1724
▁шилж	-11.1726
▁Мари	-11.1728
пан	-11.1731
▁улирлы	-11.1734
еп	-11.1739
дад	-11.1741
ита	-11.1742
▁Хайр	-11.1744
▁2.8	-11.1747
эмсэг	-11.1753
▁дэвсгэртэй	-11.1755
▁Нигери	-11.1757
▁1,0	-11.1762
гөө	-11.1763
Spanish	-11.1764
▁нөхөрлөл	-11.1765
▁Thomas	-11.1765
▁төвөгтэй	-11.1765
▁байдгаас	-11.1765
▁барьдаг	-11.1766
алтын	-11.1766
▁гэрээлсэн	-11.1767
▁хиллэж	-11.1769
▁идэвх	-11.177
▁академийн	-11.1771
▁туулж	-11.1772
▁5.5	-11.1773
▁Аз	-11.1773
▁эрүүгийн	-11.1774
▁Христос	-11.1774
▁2006,	-11.1775
▁Digital	-11.1776
▁найраг	-11.1779
ure	-11.1779
▁Table	-11.1781
▁жонон	-11.1782
▁Отто	-11.1785
▁оюутнууд	-11.1785
▁тат	-11.1786
▁ma	-11.1788
▁Банкны	-11.1788
▁Харчин	-11.179
▁нуурууд	-11.1793
iv	-11.1794
▁нааш	-11.18
еро	-11.1802
,600	-11.1802
▁Chemical	-11.1804
▁By	-11.1807
▁дундах	-11.181
▁дэвшигч	-11.1811
ня	-11.1815
▁ойрадын	-11.1817
▁өмчийн	-11.1818
▁Марокко	-11.1819
World	-11.182
les	-11.1821
▁МУГЖ	-11.1821
▁Родригес	-11.1821
Багтаамж	-11.1821
▁Basketball	-11.1821
▁ингэснээр	-11.1821
худам	-11.1821
▁Фил	-11.1821
▁1907	-11.1821
Грек	-11.1821
▁Гирин	-11.1821
▁_{	-11.1821
▁Мат	-11.1821
▁//	-11.1823
▁тушаалаас	-11.1824
▁хойгт	-11.1825
▁19:00	-11.1825
▁эсэргүүцлийн	-11.1825
▁6.5	-11.1827
▁Сартуул	-11.1828
▁цан	-11.1829
▁төлөөлж	-11.1831
▁Сургуульд	-11.1832
▁торгон	-11.1833
▁(23	-11.1834
лис	-11.1837
▁title	-11.1838
PM	-11.1839
▁эргэх	-11.184
▁элсч	-11.1841
que	-11.1842
▁өгөөд	-11.1848
Техникийн	-11.1849
фон	-11.185
▁динамик	-11.1852
ханд	-11.1853
▁Баянцагаан	-11.1855
еш	-11.1855
▁ноос	-11.1857
▁Wi	-11.1859
▁нээжээ	-11.1861
▁хаалттай	-11.1861
▁хувьтай	-11.1862
▁Улаанцав	-11.1864
▁Ме	-11.1865
▁зураас	-11.1865
юу	-11.1866
EN	-11.1868
▁азийн	-11.1869
▁сүрэг	-11.187
▁танил	-11.1874
▁ханхүү	-11.1875
Тамир	-11.1876
Hrsg	-11.1877
▁2013/14	-11.1877
▁нийлсэн	-11.1877
▁Наранбулаг	-11.1877
▁Шэньси	-11.1877
▁гардуулах	-11.1877
▁бүрэлдсэн	-11.1878
▁хэвлүүлж	-11.1878
▁шаталсан	-11.1878
▁өсөн	-11.1878
▁тайлбарладаг	-11.1879
▁тани	-11.1882
▁122	-11.1882
▁Сенегал	-11.1883
▁сумаас	-11.1883
▁из	-11.1884
▁Гүйцэтгэх	-11.1885
▁баримтат	-11.1887
▁хэлээ	-11.1889
▁Достоевский	-11.189
ven	-11.1891
▁элсүүлж	-11.1893
ea	-11.1893
▁107	-11.1893
▁наслалт	-11.1894
▁шинэчлэлт	-11.1896
▁8.0	-11.1896
жүүлсэн	-11.1901
▁хэрээр	-11.1902
▁дахиа	-11.1907
▁багахан	-11.1907
айл	-11.1908
▁Долгорсүрэн	-11.1911
▁Байлдааны	-11.1911
ham	-11.1917
ron	-11.1927
▁химич	-11.1931
▁хэлт	-11.1931
▁Танхим	-11.1933
▁Хөхтөн	-11.1933
▁аажим	-11.1933
▁Or	-11.1934
▁алгоритм	-11.1936
▁захиран	-11.1936
▁заавар	-11.1939
тра	-11.194
▁дүрмээр	-11.194
▁чансаа	-11.1941
▁дурсгалууд	-11.1942
мёнь	-11.1944
▁хуралдсан	-11.1944
▁эрхгүй	-11.1946
▁Ja	-11.1946
7°	-11.1947
▁Заг	-11.1949
▁3–1	-11.195
▁төл	-11.1953
▁төрөлт	-11.1957
▁(1995)	-11.1958
▁Band	-11.1958
▁уулзах	-11.196
20-	-11.1962
▁үйлчлэл	-11.1962
▁мөс	-11.1962
▁гу	-11.1963
▁Нурхач	-11.1964
▁е	-11.1968
▁Ленинград	-11.1969
▁орнуудаас	-11.1969
▁байрын	-11.197
▁Багдад	-11.197
▁түвшинг	-11.1971
▁Аав	-11.1974
▁Вол	-11.1975
▁буланд	-11.1976
▁орчуулагч	-11.1977
▁АХХ	-11.1977
▁БНАСАУ	-11.198
▁0.3	-11.1981
▁Киноны	-11.1983
▁Хүлэг	-11.1985
▁Фин	-11.1987
▁Константин	-11.1989
▁Эргүнэ	-11.1989
▁хөнгөлөлт	-11.1989
▁Эрик	-11.1989
▁Адольф	-11.1989
▁Тайбэй	-11.199
▁this	-11.199
▁тогтоогдсон	-11.199
▁өргөлт	-11.199
▁онцлон	-11.1991
▁асуудлуудыг	-11.1991
▁Слав	-11.1992
▁орчуулга	-11.1992
▁тэргүүлэгчид	-11.1995
▁бичгээс	-11.1995
▁Приднестр	-11.1996
▁×	-11.1996
qui	-11.2002
Су	-11.2002
▁Дуучин	-11.2003
▁баярын	-11.2004
▁музейд	-11.2004
▁зөвлөгөө	-11.2005
▁шинжлэл	-11.2006
▁Хэсгий	-11.2009
▁Нин	-11.201
ии	-11.201
▁ирнэ	-11.2013
rs	-11.2017
цү	-11.202
▁Charts	-11.2021
33)	-11.2023
▁нээн	-11.2023
арын	-11.2027
▁Ben	-11.2028
▁гэм	-11.2028
▁эхтэй	-11.203
▁мини	-11.2031
▁−1	-11.2032
▁дарсан	-11.2034
-2012	-11.2036
▁ex	-11.2036
án	-11.2037
▁Иерусалим	-11.2046
▁энхтайвны	-11.2046
▁хольц	-11.2046
▁Modern	-11.2046
▁Клейза	-11.2046
▁агь	-11.2046
ə	-11.2047
НЗНЦ	-11.2047
▁Чо	-11.2048
едалиуд	-11.2055
▁рекорд	-11.2059
▁Расинг	-11.2063
▁алан	-11.2066
▁Mon	-11.207
▁1899	-11.207
▁захад	-11.2075
5%	-11.2075
▁1999,	-11.2076
▁Pe	-11.2078
▁аргын	-11.2079
▁зарчмыг	-11.208
▁дутагдл	-11.2082
▁2007.	-11.2085
▁Хиад	-11.2086
▁Чил	-11.2088
▁ch	-11.2093
▁зогссон	-11.2094
▁2010-11	-11.2095
▁Осет	-11.2096
▁Агваан	-11.2097
▁Сэргэ	-11.2099
▁he	-11.2099
үүдээс	-11.21
өлөөлдөг	-11.2102
▁хэлэлцэн	-11.2102
▁Новосибирск	-11.2103
▁Stuttgart	-11.2103
▁me	-11.2106
▁Ажлын	-11.2106
▁Йемен	-11.2106
Өвөр	-11.2106
▁алин	-11.2107
uc	-11.2108
▁Түр	-11.2109
▁хөтөлбөрийн	-11.2112
▁тэмдгээр	-11.2114
▁Билл	-11.2114
▁Цар	-11.2114
▁ази	-11.2115
▁Тайландын	-11.2115
▁Андрей	-11.2116
▁иддэг	-11.2117
▁JYP	-11.2117
▁Manchester	-11.2118
▁Цагаадайн	-11.2119
жинь	-11.212
1%	-11.212
▁Диего	-11.2123
▁10.1	-11.2123
▁Сүмбэ	-11.2125
▁илэрхий	-11.2126
▁бурхны	-11.213
▁220	-11.213
ors	-11.2131
бра	-11.2131
▁тулгар	-11.2132
▁170	-11.2133
хара	-11.2133
▁Цөмийн	-11.2136
▁Ro	-11.2136
▁му	-11.2137
▁Эрдэнэбат	-11.2138
▁Ганбат	-11.2141
nu	-11.2142
олбоотой	-11.2145
▁Тра	-11.2145
-72	-11.2146
▁шуудан	-11.2147
▁Оюун	-11.2149
▁дүрүүд	-11.215
▁шугамыг	-11.2153
насан	-11.2154
▁Your	-11.2158
ури	-11.2159
▁хариуд	-11.216
▁Weights	-11.2161
▁хэрэгслүүд	-11.2161
▁auf	-11.2161
▁other	-11.2161
▁түшиглэн	-11.2161
▁дэслэгч	-11.2162
▁Story	-11.2162
▁агаад	-11.2162
▁гадаргуугийн	-11.2163
▁гучин	-11.2163
▁мужаас	-11.2164
▁Өрөмч	-11.2165
ная	-11.2167
▁Хүрээлэн	-11.2168
▁амралт	-11.2168
сань	-11.2168
CO	-11.2171
▁гаргахад	-11.2171
▁Мор	-11.2172
▁өвд	-11.2173
ира	-11.2174
▁илгээн	-11.2175
▁хойшхи	-11.2178
▁мөнгийг	-11.2182
▁баривчлан	-11.2183
▁дарлал	-11.2184
укр	-11.2184
▁Per	-11.2184
▁Albums	-11.2186
▁алсын	-11.2187
ari	-11.2189
▁Эг	-11.2189
▁зөгий	-11.2191
▁Буш	-11.2195
▁Инь	-11.2196
▁коммунистууд	-11.2196
▁цэргүүдийн	-11.2197
▁(1992	-11.2198
нов	-11.2198
▁ахин	-11.2198
юү	-11.2199
▁эрэмб	-11.2202
▁нийлүүлэх	-11.2203
▁зохиолд	-11.2204
жсан	-11.2206
▁гэрлэж	-11.2207
▁үзэлтэй	-11.2207
лаагүй	-11.221
▁Empire	-11.2211
hr	-11.2212
гүүд	-11.2217
▁цохих	-11.2217
▁Пистонс	-11.2219
▁барилдаанд	-11.2219
▁Хянганы	-11.2219
▁геологийн	-11.2219
▁өргөсөн	-11.2219
▁олборлолт	-11.222
▁Social	-11.2221
уп	-11.2221
▁эргээд	-11.2222
Хувийн	-11.2223
▁тэмдэглэн	-11.2224
▁цав	-11.2226
▁Ком	-11.2227
▁Anti	-11.2227
▁тусгаарлаж	-11.2228
▁хийхийг	-11.223
▁компаниудын	-11.2232
▁чулуулг	-11.2232
▁Records	-11.2233
▁Ye	-11.2234
▁Жүн	-11.2234
▁зугтан	-11.2235
▁судр	-11.2236
▁үзүүлбэр	-11.2237
▁тусламжтай	-11.224
кал	-11.2243
жүүлэх	-11.2243
▁132	-11.2244
▁хотон	-11.2246
▁байгаагаар	-11.2248
▁Вен	-11.2248
▁тугалга	-11.2249
▁өөрийнх	-11.225
0)	-11.2251
▁харилцаанд	-11.2252
ning	-11.2255
▁гацаа	-11.2258
tor	-11.2258
▁сонголтоор	-11.226
▁1-0	-11.2261
▁(1990	-11.2262
▁дэвшүүлж	-11.2262
▁жүдоч	-11.2264
▁ес	-11.2266
▁}	-11.2267
▁9.1	-11.2267
▁сүй	-11.227
▁ундаа	-11.227
▁шалтгаалж	-11.2277
▁байтугай	-11.2277
▁бүрдэж	-11.2281
▁плит	-11.2281
▁босч	-11.2285
▁Дэлхийд	-11.2285
▁100,000	-11.2288
▁цөөнх	-11.2289
▁Хө	-11.2291
▁түгээх	-11.2292
▁Худалдааны	-11.2294
▁төвлөн	-11.2295
цэр	-11.2296
тний	-11.2298
▁багшаар	-11.2303
▁баримтлан	-11.2303
▁хүр	-11.2305
▁2005)	-11.2306
▁зуух	-11.2306
дээд	-11.2307
Ро	-11.2307
оре	-11.2309
▁Ци	-11.2312
▁төрхтэй	-11.2313
▁толгойлогч	-11.2316
▁1600	-11.2317
AL	-11.232
▁тайз	-11.2321
▁цэгт	-11.2324
▁хойч	-11.2326
wi	-11.2329
▁хүргэжээ	-11.233
▁Хе	-11.2333
▁бэлтгэсэн	-11.2335
▁хэвлүүлсэн	-11.2336
▁edition	-11.2336
▁итгэдэг	-11.2337
▁заадаг	-11.2337
▁мөчид	-11.2339
▁тогтоосны	-11.2339
▁Альп	-11.2341
▁Самарканд	-11.2343
▁Чусонь	-11.2343
аймаг	-11.2343
▁Аббас	-11.2344
▁Үзэмчин	-11.2345
▁Tim	-11.2346
▁зүрхний	-11.2346
▁шаардлагагүй	-11.2354
▁ороход	-11.2356
усын	-11.2357
▁хажуугийн	-11.2358
гүүр	-11.2358
▁чих	-11.2359
▁its	-11.2359
чан	-11.2359
▁Францад	-11.2362
▁шинжийг	-11.2362
▁онгоцууд	-11.2366
▁солилцох	-11.2367
гэсэн	-11.2367
▁тохиролцоо	-11.2367
▁Артур	-11.2369
▁Content	-11.2376
фор	-11.2376
-26	-11.2376
du	-11.2377
▁Ол	-11.2377
▁80%	-11.2379
ola	-11.2379
пл	-11.2381
▁шүүмжлэл	-11.2382
▁настан	-11.2387
▁дөрвөд	-11.2387
▁тэмдг	-11.2387
уулга	-11.2387
▁Чэн	-11.2389
RA	-11.2389
▁командлал	-11.2389
▁хортой	-11.239
▁William	-11.2391
▁Brown	-11.2394
►	-11.2394
▁show	-11.2394
▁өсгөж	-11.2394
▁сайжруулалт	-11.2394
▁угалз	-11.2394
▁залгамжилсан	-11.2395
▁Үүсэл	-11.2395
▁таних	-11.2395
▁Бигэр	-11.2396
▁sind	-11.2396
ya	-11.2396
▁үзэлтнүүд	-11.2397
▁шийдвэрлэж	-11.2397
▁бүхний	-11.2398
300	-11.2403
▁түлшний	-11.2405
▁ашгийн	-11.2405
▁температурын	-11.2406
▁Сайншанд	-11.2406
цо	-11.2408
▁Мэдээлэл	-11.2408
▁цөлийн	-11.241
▁Apple	-11.2411
ex	-11.2413
▁холбоод	-11.2414
▁Юрий	-11.2415
▁Тэргүүн	-11.2415
▁амт	-11.2415
▁Black	-11.2417
рас	-11.2421
агдсан	-11.2423
▁0.9	-11.2426
иний	-11.2426
▁өргөнөөр	-11.2428
ob	-11.2429
▁зарчм	-11.243
иж	-11.2431
▁амжилтаар	-11.2433
▁->	-11.2436
▁биеийг	-11.2437
▁Фор	-11.2439
▁Тамгы	-11.2441
▁du	-11.2442
вч	-11.2443
▁27.	-11.2443
▁шийт	-11.2443
gs	-11.2444
▁152	-11.2445
▁Хугацаа	-11.245
Мөн	-11.2451
▁Сп	-11.2452
соор	-11.2453
▁IEEE	-11.2453
▁2008–09	-11.2453
▁өгүүлдэг	-11.2453
▁Дашзэвэгийн	-11.2453
▁овгууд	-11.2454
▁Үүрэг	-11.2454
▁хөнөөл	-11.2454
▁томилдог	-11.2454
▁жигүүрийн	-11.2454
цэрэн	-11.2455
▁Санчир	-11.2455
▁түлхүү	-11.2455
▁Dream	-11.2455
Да	-11.2456
▁Хал	-11.2456
▁Варшав	-11.2458
▁лан	-11.2458
▁Амбагай	-11.246
▁ихэс	-11.246
Словени	-11.246
▁Уралдаан	-11.2463
▁татдаг	-11.2464
▁Будапешт	-11.2464
▁Pr	-11.2466
▁Цао	-11.2466
▁(22	-11.2469
жуу	-11.2469
▁0-8	-11.2472
▁туслагч	-11.2477
зон	-11.2477
▁Зургааг	-11.2477
▁бэлгийн	-11.2479
▁багана	-11.2479
▁Үг	-11.248
тив	-11.2481
▁Олд	-11.2482
▁сэргээж	-11.2483
луулан	-11.2483
▁сүүн	-11.2483
▁0.4	-11.2483
Аугаа	-11.2484
ологи	-11.2484
▁дэвшин	-11.2486
▁боловсон	-11.2486
▁гараагүй	-11.2487
▁жаргал	-11.2492
▁төлж	-11.2495
▁Там	-11.2496
ГИЙН	-11.2498
▁хөвөн	-11.2499
▁ачааны	-11.2501
ижи	-11.2503
▁Бадмаа	-11.2513
▁103	-11.2514
▁хөгжүүлэлт	-11.2515
▁тушаалын	-11.2515
▁Аварг	-11.2517
▁хуруу	-11.2519
▁компанид	-11.2522
▁Мэргид	-11.2523
▁гэхээр	-11.2526
▁оноолт	-11.2527
▁Панам	-11.2531
ура	-11.2534
▁гүйцэ	-11.2538
▁гаргаад	-11.2538
▁Алтангэрэл	-11.2542
▁XI	-11.2543
▁2003,	-11.2544
▁слав	-11.2546
▁байхаас	-11.2546
▁жишээлбэл	-11.2548
▁Сер	-11.2548
эндээ	-11.2548
1°	-11.2549
▁(2005	-11.2551
▁цайр	-11.2552
сөөр	-11.2554
ааны	-11.2559
▁(1994	-11.2563
2006	-11.2566
▁Mac	-11.2566
▁дуунд	-11.2567
Мэдээ	-11.257
▁стерлинг	-11.2573
▁Сергей	-11.2573
11-	-11.2573
▁≈	-11.2574
▁хүртэв	-11.2574
▁хүчирхийлэл	-11.2574
▁судалгааг	-11.2575
▁зорьсон	-11.2575
гээрээ	-11.2575
▁Аялал	-11.2576
▁болзол	-11.2578
▁махбод	-11.2579
▁АИХ	-11.258
April	-11.2581
▁Нм	-11.2582
▁Ахмад	-11.2587
▁тусламжийн	-11.2587
Гарал	-11.2587
▁тажик	-11.2588
▁Социализм	-11.2588
▁2007)	-11.2591
3,000	-11.2593
▁Зоригт	-11.2594
2009	-11.2596
▁Arsenal	-11.2598
ii	-11.2599
▁хөдөлгөөнд	-11.2599
▁ангилж	-11.2601
▁үхэх	-11.2603
▁6.4	-11.2604
▁q	-11.2605
▁дээрхи	-11.2607
port	-11.2608
▁XVIII	-11.2612
▁чиглэн	-11.2612
▁Филиппиний	-11.2613
жийн	-11.2616
лес	-11.2616
▁солих	-11.2617
тэ	-11.2618
▁нот	-11.2621
▁шалгаруулалт	-11.2621
▁замналын	-11.2628
иус	-11.2628
▁2010)	-11.263
▁үгнүүд	-11.2631
ي	-11.2632
▁аялга	-11.2632
ı	-11.2633
▁Батсүмбэр	-11.2633
▁мэдрэмж	-11.2633
Жанейро	-11.2633
▁сургагч	-11.2633
▁зөрчсөн	-11.2633
▁зурлага	-11.2633
▁ИТХ	-11.2634
▁худам	-11.2634
▁10.0	-11.2635
▁Халхгол	-11.2635
ore	-11.2636
▁туулай	-11.2638
ца	-11.2638
елийн	-11.264
цагаан	-11.2642
▁харуулдаг	-11.2643
есс	-11.2643
▁Хүслэн	-11.2644
▁дэлгэрүүлэх	-11.2645
▁Манжуурт	-11.2646
▁холбоотны	-11.2647
▁гарахад	-11.2648
▁1902	-11.2648
▁тов	-11.2648
م	-11.2648
▁эхнээс	-11.2649
▁Roman	-11.2652
▁Зүчийн	-11.2652
▁ойрадууд	-11.2653
▁104	-11.2653
▁Pre	-11.2654
унь	-11.2654
▁Сүхбат	-11.2654
▁хөвөөнд	-11.2657
ера	-11.2658
▁сурталчилгааны	-11.2658
▁томъёог	-11.2658
▁ярианы	-11.2661
ава	-11.2662
lus	-11.2663
979	-11.2664
оген	-11.2665
▁бүхэнд	-11.2667
▁салгаж	-11.2668
рит	-11.2668
▁хоолойгоор	-11.2669
▁шугаман	-11.267
▁Кап	-11.2672
▁Мэдээ	-11.2674
тинг	-11.2675
▁хүндэтгэн	-11.2678
▁цээж	-11.2682
▁тоот	-11.2685
▁Альберт	-11.2689
▁ас	-11.269
-1945	-11.2691
▁900	-11.2692
ойн	-11.2692
▁зүйлээс	-11.2693
▁Чахундорж	-11.2693
▁огторгуй	-11.2693
▁Guardian	-11.2693
▁Өөлд	-11.2693
чилсан	-11.2694
▁гурвалжин	-11.2694
▁туркмен	-11.2694
үүний	-11.2696
▁-3	-11.27
▁Зе	-11.2703
▁бэлтгэн	-11.2704
▁Дагуур	-11.2704
▁Норвегийн	-11.2705
▁жилийг	-11.2705
▁Швейцари	-11.271
▁нэгтгэлүүд	-11.271
тат	-11.271
▁дарангуйлагч	-11.2712
▁Фри	-11.2714
▁үгний	-11.2716
▁нарс	-11.2717
▁уулнаас	-11.2719
▁тахил	-11.2721
art	-11.2721
▁Хошууны	-11.2722
▁0.2	-11.2723
▁Франкфурт	-11.2724
▁ардчиллы	-11.2724
▁Хүнд	-11.2724
▁гэнэтийн	-11.2725
▁хамаарал	-11.2727
ame	-11.2727
▁сургуулиас	-11.2727
▁Й	-11.2733
▁Бөө	-11.2735
▁жинд	-11.2737
▁хүүхдээ	-11.274
▁сам	-11.2744
▁Air	-11.2745
▁мөрийн	-11.2745
ind	-11.2745
хэр	-11.2749
Унгар	-11.275
▁Мэжик	-11.2754
▁Налайх	-11.2754
▁Пабло	-11.2754
▁Бавуужав	-11.2754
▁нарийвчилсан	-11.2754
▁тараах	-11.2754
▁тусгасан	-11.2754
▁сонирхлыг	-11.2754
▁онгон	-11.2755
▁нийлмэл	-11.2755
▁хожигдсон	-11.2756
▁зохи	-11.2757
▁дамжуулдаг	-11.2758
▁дууддаг	-11.2758
▁2,5	-11.2758
ола	-11.2758
▁Есөн	-11.2759
▁тахал	-11.2759
Ши	-11.276
▁Fa	-11.276
▁Жонни	-11.2761
▁шороо	-11.2761
▁тойронд	-11.2762
▁Second	-11.2762
▁өнгөрөх	-11.2762
▁гатлан	-11.2762
▁Мэдээж	-11.2764
жишээ	-11.2765
▁England	-11.2765
▁эхлүүлэх	-11.2765
▁ту	-11.2765
▁орчуулах	-11.2766
3.1	-11.2766
▁Week	-11.2767
▁МОНГОЛ	-11.2767
күнь	-11.2767
▁хуучны	-11.2767
▁багтан	-11.2767
▁Ст	-11.2768
▁Дэвис	-11.2768
Хөх	-11.2769
▁дээрэм	-11.2771
▁хромосом	-11.2775
▁зөрүүтэй	-11.2776
▁сонгонд	-11.2777
▁цомыг	-11.2779
▁дараалсан	-11.278
▁co	-11.278
▁Еврей	-11.278
▁өнөөдрийн	-11.2784
Ан	-11.2786
ака	-11.2786
▁нараар	-11.2787
▁ардууд	-11.2789
▁ХХ	-11.2792
гчид	-11.2794
▁Ad	-11.2794
▁даатгалын	-11.2794
▁vol	-11.2795
▁төсөвт	-11.2795
▁Энгийн	-11.28
7-	-11.2801
▁Британий	-11.2801
▁Софи	-11.2802
▁Цэрэндорж	-11.2807
чдийн	-11.2809
▁шүүмж	-11.2809
▁нөлөөг	-11.2809
▁эсгий	-11.2812
▁Ке	-11.2814
▁Video	-11.2815
▁хариуцлагатай	-11.2816
▁захирагддаг	-11.2816
▁гүйцсэн	-11.2816
▁цохисон	-11.2817
▁цахиур	-11.2817
burg	-11.2818
dy	-11.2818
-9	-11.2821
▁байгуулагдаха	-11.2821
чим	-11.2821
▁намрын	-11.2821
▁Хорь	-11.2823
▁10%	-11.2832
▁Цэрэнтогтох	-11.2833
IS	-11.2834
дэр	-11.2836
▁do	-11.2837
▁Авто	-11.2837
▁(1989	-11.2838
▁1880	-11.284
▁Стандарт	-11.2842
▁Хамбург	-11.2849
▁сор	-11.285
▁цагийг	-11.2851
▁урдаа	-11.2855
▁хог	-11.2856
▁коллежийн	-11.2858
λ	-11.286
хээр	-11.286
рган	-11.286
аци	-11.2864
▁дуугаар	-11.2866
▁халдварт	-11.2867
▁гаралт	-11.2872
▁түм	-11.2874
ski	-11.2874
▁хүсэлтийг	-11.2874
▁үхэл	-11.2875
▁(25	-11.2875
▁Всероссийск	-11.2877
▁2007–08	-11.2878
▁бичмэл	-11.2878
▁өргөмжлөгдсөн	-11.2878
▁эрдэмтдийн	-11.2878
▁засаж	-11.2878
▁төлөвлөсөн	-11.2878
▁үсгүүд	-11.2878
▁итгэж	-11.2879
▁чулууг	-11.2879
▁залган	-11.2879
▁бү	-11.288
..."	-11.288
▁танд	-11.2881
▁шигүү	-11.2882
▁Generation	-11.2883
▁Тимор	-11.2885
▁Автономит	-11.2885
▁гр	-11.2885
▁өгснөөр	-11.2886
хин	-11.2886
ено	-11.2892
▁аргачлал	-11.2893
▁сал	-11.2895
▁Леон	-11.2897
AR	-11.2898
▁хэрэггүй	-11.2898
▁Шир	-11.2898
▁генетик	-11.2899
▁түрэмгийллий	-11.2901
ula	-11.2902
▁үелэх	-11.2904
йе	-11.2905
▁1909	-11.2908
▁data	-11.2911
▁Бакс	-11.2913
Ург	-11.2914
▁Ойр	-11.2914
▁Үйлдвэрлэгч	-11.2917
болд	-11.2917
▁үүсэлтэй	-11.2918
▁Кайши	-11.292
▁хяналтанд	-11.2921
чээ	-11.2921
▁ганцаар	-11.2923
ama	-11.2924
▁пирамид	-11.2929
▁Сэ	-11.2933
▁соёлтой	-11.2934
зер	-11.2935
▁time	-11.2938
0000	-11.2939
▁хөтөч	-11.294
▁суудлын	-11.294
▁тооцогдох	-11.294
▁хангадаг	-11.294
▁2–0	-11.294
▁даавуу	-11.294
▁бичигддэг	-11.294
fer	-11.294
▁сурвалжлагч	-11.294
▁хүртээл	-11.294
▁Дели	-11.294
▁хураах	-11.294
▁мөх	-11.2941
▁Вики	-11.2941
▁ка	-11.2942
▁Заса	-11.2942
▁загварт	-11.2943
▁Мөст	-11.2943
▁бусдыг	-11.2944
▁докторын	-11.2946
Са	-11.2947
▁залгана	-11.2952
гре	-11.2952
▁угсаатнууд	-11.2953
▁Дува	-11.2953
▁домгий	-11.2954
▁Улирлууд	-11.2954
men	-11.2955
▁осол	-11.2955
▁эргүүлж	-11.2956
▁хэрэглэгчдийн	-11.2958
▁Батсүх	-11.2964
▁хөгжүүлэхэд	-11.2965
▁Үд	-11.2967
▁үзүүлжээ	-11.2967
Бу	-11.2968
▁Гэ	-11.297
yr	-11.2977
Си	-11.2979
зүйн	-11.298
▁байрлалтай	-11.2987
▁аяга	-11.2987
az	-11.299
▁хадгалагдан	-11.299
▁өртөн	-11.2994
▁билэг	-11.2998
▁чанад	-11.2999
▁будаг	-11.2999
ble	-11.3001
▁клубт	-11.3001
▁Баянтүмэн	-11.3002
▁Бремен	-11.3002
▁Foundation	-11.3002
▁Museum	-11.3002
▁эзэлнэ	-11.3002
▁орсноор	-11.3003
▁бүрээр	-11.3003
▁хийхдээ	-11.3003
▁Don	-11.3004
▁тооцож	-11.3005
сал	-11.3006
▁загасны	-11.3007
▁үрэгд	-11.3008
▁Альберто	-11.3008
чэн	-11.3009
Нам	-11.3009
▁дуусгав	-11.3012
▁Мен	-11.3012
▁зэвсгий	-11.3013
▁Singles	-11.3014
▁жижигхэн	-11.3014
▁жуулчдын	-11.3015
▁Зун	-11.3016
▁Ерөнхийлөгчөөр	-11.3017
▁Com	-11.3018
ische	-11.3019
▁(1992)	-11.3021
▁Рус	-11.3022
▁зээлээр	-11.3022
san	-11.3024
▁Ни	-11.3025
жид	-11.3026
▁This	-11.3027
▁μ	-11.3029
▁жад	-11.303
тоол	-11.3032
▁And	-11.3035
▁Кливленд	-11.3037
пол	-11.3037
▁Дайду	-11.3045
игийн	-11.3046
хаас	-11.3047
▁Цааши	-11.3051
Чи	-11.3053
▁Жужан	-11.3053
▁нүдэнд	-11.3055
лит	-11.3056
▁украйн	-11.3057
▁марк	-11.3058
екс	-11.306
▁перепис	-11.3061
▁has	-11.3063
▁Th	-11.3064
▁Фридрих	-11.3065
▁магистр	-11.3065
▁сэргийлж	-11.3065
리	-11.3065
▁зогсож	-11.3065
▁фото	-11.3065
▁гутал	-11.3065
ИС	-11.3067
▁Яруу	-11.3067
ween	-11.3068
▁биднийг	-11.3068
▁статустай	-11.3068
▁цуг	-11.3069
▁Султан	-11.3069
pp	-11.307
▁байт	-11.3071
▁давтан	-11.3072
▁Дунай	-11.3073
▁Аюурбарбад	-11.3074
ū	-11.3075
▁сумдын	-11.3075
▁оруулдаг	-11.3076
▁царай	-11.3077
▁Кас	-11.3082
▁идэх	-11.3084
рол	-11.3085
▁Хотгойдын	-11.3086
▁замналаа	-11.3086
▁туурвиж	-11.3086
▁мянганы	-11.3086
ata	-11.3088
На	-11.309
▁Хер	-11.309
▁NCT	-11.3091
▁харш	-11.3094
▁ажлаас	-11.3094
▁ялгал	-11.3096
▁хүсэлтэй	-11.3102
лагддаг	-11.3104
▁Онцгой	-11.3105
▁төлөөлөгчөөр	-11.3105
▁Пүрэвийн	-11.3105
▁ӨМӨЗО	-11.3105
▁Эхнэр	-11.3107
▁байгуулсны	-11.3108
pl	-11.311
▁команд	-11.3111
алгүй	-11.3113
▁Кен	-11.3114
▁пуужинг	-11.3114
▁гүйлтийн	-11.3115
▁агсан	-11.3118
▁боловсролтой	-11.312
▁den	-11.312
▁түрэмгий	-11.3121
▁Кристиан	-11.3123
ама	-11.3124
va	-11.3125
▁Britannica	-11.3128
▁Bank	-11.3128
▁үргэлжлэл	-11.3129
▁дайчид	-11.3129
.2.1	-11.313
▁товчоон	-11.313
▁тооцсон	-11.3134
▁Шавж	-11.3136
▁z	-11.3136
▁явуул	-11.3139
бух	-11.3139
▁мэдээллээ	-11.314
▁9.0	-11.314
нес	-11.3141
▁дургүй	-11.3143
Бээжин	-11.3144
ez	-11.3145
ави	-11.3145
▁номоо	-11.3146
▁мембран	-11.3147
▁Рашаант	-11.3149
▁UN	-11.3149
▁Район	-11.3153
▁тэргүүлэгчдий	-11.3157
▁тамхины	-11.3157
▁ёроол	-11.3158
▁үзүүрийн	-11.3159
–20,	-11.316
▁эргээр	-11.3162
▁агуй	-11.3164
▁авьяас	-11.3169
her	-11.3171
▁фунтээ	-11.3173
▁саналаа	-11.3174
рей	-11.3178
▁Хонгор	-11.3179
▁ванг	-11.3179
▁Инд	-11.318
▁Жен	-11.319
▁лиценз	-11.3192
▁Energy	-11.3192
▁агнуур	-11.3192
▁Сумъяабаатар	-11.3192
rgebnisse	-11.3192
▁шагнасан	-11.3193
ee	-11.3194
▁хүчирхэгжиж	-11.3194
▁кЖ	-11.3196
▁илрүүлэх	-11.3197
▁порт	-11.3197
▁зохиогчийн	-11.3198
▁Нүүрс	-11.3199
by	-11.3199
▁дураар	-11.3204
-34	-11.3205
нан	-11.3205
▁тэлэх	-11.3206
▁Кеннеди	-11.3207
▁хариулт	-11.3207
▁дагуулсан	-11.321
онг	-11.3212
үс	-11.3214
▁цуглуулж	-11.3215
▁Мемфис	-11.3215
ᠯ	-11.3217
▁эцгийнх	-11.3223
▁area	-11.3224
▁Маг	-11.3225
▁нэгтэй	-11.3226
▁хэлээд	-11.3229
▁Луи	-11.3229
cha	-11.3229
▁монголчуудад	-11.323
▁тамгы	-11.3231
сть	-11.3231
Ma	-11.3233
▁арлуудын	-11.3234
▁сонинд	-11.3235
row	-11.3236
▁олз	-11.3239
▁линз	-11.324
-27	-11.3241
▁ОТ	-11.3243
▁зүйч	-11.3243
▁цаашлаа	-11.3244
зүүн	-11.3247
▁тог	-11.3249
▁162	-11.3253
оми	-11.3253
▁залгах	-11.3254
▁тулалдах	-11.3256
▁хуримтлал	-11.3256
▁нийгмийг	-11.3256
▁нотолгоо	-11.3256
▁ноёрхлы	-11.3256
▁Рокетс	-11.3256
▁дагуулалт	-11.326
▁Эцэст	-11.3263
▁чаддаггүй	-11.3264
▁doi	-11.3266
▁зүс	-11.3266
tra	-11.3267
▁уртын	-11.3267
▁ref	-11.3271
▁холбогдлоо	-11.3272
▁Плей	-11.3274
▁дөчин	-11.3274
▁Дур	-11.3276
▁шинэчлэлийн	-11.3277
▁ХБНГУ	-11.3278
18:30	-11.3279
маны	-11.3283
▁бодлоо	-11.3283
▁мужтай	-11.3283
rt	-11.3284
▁ашиглана	-11.3285
▁туулах	-11.3286
рэг	-11.3288
▁van	-11.3291
▁sp	-11.3292
▁Cor	-11.3293
5.8	-11.3295
▁Бү	-11.3301
-23	-11.3304
▁гуравт	-11.3307
▁аа	-11.331
рэй	-11.3311
▁Пүрэвдорж	-11.3311
ДМ	-11.3311
10.	-11.3312
аев	-11.3313
ссон	-11.3315
▁Тогтох	-11.3315
▁move	-11.3316
лүүлэв	-11.332
▁идэвхи	-11.332
▁Military	-11.3321
▁өгөгдлийг	-11.3321
▁түшиц	-11.3321
▁тохинуулах	-11.3321
▁тэнцэж	-11.3321
▁Алдархаан	-11.3321
▁Opel	-11.3321
▁товчлол	-11.3321
▁сонгомол	-11.3321
▁1860	-11.3321
▁хасагдсан	-11.3322
▁хүлээлгэн	-11.3323
kr	-11.3323
▁Фернандо	-11.3323
▁үлдэн	-11.3323
сайхан	-11.3323
▁гитарчин	-11.3324
▁буцан	-11.3325
▁Малчин	-11.3326
▁106	-11.3326
ó	-11.3326
луур	-11.3327
сах	-11.3328
8-	-11.3328
▁алдах	-11.3328
өрөг	-11.3329
елли	-11.333
▁0.5	-11.333
1:30	-11.3332
▁эмчилгээний	-11.3333
▁засгаас	-11.3333
▁илүүтэй	-11.3334
▁үйлд	-11.3336
ЭН	-11.3336
▁эмх	-11.334
▁209	-11.3343
▁Villa	-11.3349
▁тэнгисээр	-11.3349
▁ялалтын	-11.335
▁илтгэх	-11.3353
{\	-11.3356
▁Өлгий	-11.3356
▁1920-	-11.336
▁Харт	-11.3361
ura	-11.3363
▁Шо	-11.3364
▁бодолтой	-11.3365
шилт	-11.3365
▁математикч	-11.3367
▁Network	-11.3368
▁больж	-11.3369
▁хэмээж	-11.3369
ب	-11.337
ост	-11.3371
▁байгууллагаас	-11.3371
▁Вена	-11.3372
▁Тянь	-11.3373
▁Van	-11.3374
▁бүртгэлд	-11.3374
▁Ньюкасл	-11.3376
▁ухарч	-11.3379
▁хүүгийн	-11.3382
▁байршл	-11.3386
▁хүсэж	-11.3386
▁Тайсун	-11.3386
▁сонгогджээ	-11.3386
▁Шарга	-11.3387
▁Эргэн	-11.3387
▁Lo	-11.3388
▁Арми	-11.3389
лсэн	-11.3389
▁авъяас	-11.339
▁Чингүнжав	-11.3392
▁өргөмжлөх	-11.3393
▁зээр	-11.3393
▁хайж	-11.3395
▁Чита	-11.3395
▁Нор	-11.3396
nz	-11.3396
▁Жамц	-11.3398
▁гоё	-11.3399
1.7	-11.3401
олсон	-11.3402
▁one	-11.3405
ace	-11.3406
▁бэхжүүлж	-11.3409
▁Тогоон	-11.3409
▁голоос	-11.3409
▁шаардах	-11.3413
▁талбайтай	-11.3413
ī	-11.3413
▁өнцөгт	-11.3415
хэл	-11.3416
▁жилээс	-11.3424
▁Дайчин	-11.3426
▁Палестин	-11.343
ади	-11.343
▁явахад	-11.3434
Гол	-11.3436
еле	-11.3438
ула	-11.3439
eb	-11.344
▁багийнхаа	-11.3444
▁138	-11.3445
▁-5	-11.3446
▁дархлаа	-11.3448
▁сумд	-11.3449
▁Гондурас	-11.3451
▁маргааш	-11.3451
✔	-11.3451
▁цөмрөн	-11.3451
▁Арслан	-11.3451
▁Canadian	-11.3451
▁явагдана	-11.3451
▁илэрхийлэл	-11.3452
▁Тяньжинь	-11.3452
▁удирддаг	-11.3454
▁Найманы	-11.3455
▁түүгээр	-11.3455
▁өргөжин	-11.3455
▁холбогдоно	-11.3455
▁махчин	-11.3456
▁ургалт	-11.3457
▁0.8	-11.3458
▁Чечений	-11.3464
▁Халхад	-11.3465
▁түрэмгийлэл	-11.3465
▁Баримт	-11.3466
▁чимээ	-11.3466
▁1–3	-11.3467
ق	-11.3469
вай	-11.347
0.000	-11.347
▁нарийвчла	-11.347
2,000	-11.347
Гадаад	-11.3471
▁game	-11.3471
▁Хэр	-11.3473
▁.6	-11.3475
ази	-11.3475
овский	-11.3476
▁Сэтгэл	-11.3477
▁ивээл	-11.3477
АХ	-11.3478
▁шийтгэл	-11.348
▁1898	-11.3481
▁Библи	-11.3483
note	-11.3484
▁тээвэрлэх	-11.3484
▁Чэнь	-11.3486
▁Тэг	-11.3487
▁Ионжи	-11.3488
▁цэрэглэн	-11.3488
▁Дүн	-11.3488
▁Манжууд	-11.3489
▁практик	-11.3492
▁Токиогийн	-11.3492
mu	-11.3493
▁метал	-11.3494
8,000	-11.3495
▁шүд	-11.3496
буу	-11.3497
▁өндөрлөгт	-11.3497
амба	-11.35
▁байгуулал	-11.3502
▁бэйс	-11.3503
▁амжилтаа	-11.3503
ock	-11.3504
угийн	-11.3504
▁‘	-11.3505
▁Конго	-11.3507
▁aus	-11.3509
▁дам	-11.351
▁стандартын	-11.3511
▁Гай	-11.3512
▁мөнгөөр	-11.3516
▁веб	-11.3517
▁Statistik	-11.3517
▁Volkszählung	-11.3517
▁YouTube	-11.3517
▁first	-11.3517
▁хуваагджээ	-11.3517
▁хэмээдэг	-11.3517
▁Дэлгэрэнгүй	-11.3517
▁нийцсэн	-11.3517
▁Иордан	-11.3517
Хан	-11.3517
▁2006–07	-11.3517
▁хэвшлийн	-11.3517
▁MTV	-11.3518
▁Республики	-11.3519
▁Тариалан	-11.352
▁өвчтэй	-11.352
▁Elements	-11.352
▁ирээдүйд	-11.3521
▁хэрэглээг	-11.3522
▁Үзүүлэлтүүд	-11.3522
▁гөрөөс	-11.3523
▁оюутны	-11.3523
▁Парисын	-11.3526
▁Есүс	-11.3527
stat	-11.3528
▁томилогдож	-11.353
зү	-11.3533
ык	-11.3534
▁уст	-11.3534
▁(6)	-11.3535
Le	-11.3535
ib	-11.3536
Албан	-11.3537
▁Эдди	-11.354
▁Inter	-11.3541
▁тн	-11.3541
маар	-11.3542
▁алд	-11.3543
6:00	-11.3544
▁Players	-11.3544
▁Ой	-11.3545
▁Бер	-11.3546
▁ионууд	-11.3548
▁ма	-11.3548
▁цагаа	-11.355
mb	-11.355
▁эхийг	-11.3551
▁хүрд	-11.3555
▁шатааж	-11.3556
▁Интер	-11.3556
ял	-11.3559
▁академид	-11.3562
тнүүд	-11.3563
жсөн	-11.3568
▁4.6	-11.3568
gg	-11.357
▁Ru	-11.357
ений	-11.3571
▁Korean	-11.3572
▁зал	-11.3574
▁Пар	-11.3577
2005	-11.3581
хуу	-11.3582
▁гайхамшиг	-11.3582
▁Dictionary	-11.3583
▁цэнгэг	-11.3583
▁Бүрэлдэхүүн	-11.3583
인	-11.3583
▁хулгана	-11.3583
▁Асгат	-11.3583
▁бутархай	-11.3583
▁үйлдлүүд	-11.3583
▁Могод	-11.3583
▁Туркоглу	-11.3583
▁үргэлжлүүлж	-11.3583
ной	-11.3584
▁бич	-11.3585
▁тэмцээнүүд	-11.3585
▁ОАК	-11.3587
▁хуваагдах	-11.3587
▁(2002	-11.3587
▁элементүүдийн	-11.3592
▁Нигер	-11.3593
▁хороолол	-11.3594
▁Adam	-11.3594
▁үзэмж	-11.3595
Бор	-11.3595
лугаа	-11.3596
▁Үнэмлэхүй	-11.3596
▁журамт	-11.3597
▁KOR	-11.3597
нид	-11.3597
1.5	-11.36
▁арьстан	-11.36
▁тунгалаг	-11.3601
▁1861	-11.3602
▁Мэргэн	-11.3602
▁2001,	-11.3604
▁Дал	-11.3605
▁1688	-11.3607
▁mi	-11.3608
▁гурвын	-11.3612
▁хашаа	-11.3613
▁6000	-11.3614
▁хөвч	-11.3615
off	-11.3616
▁1870	-11.3618
▁Жаргалан	-11.3619
Германы	-11.362
Ба	-11.3626
▁(2004	-11.3631
▁хоршоо	-11.3633
ric	-11.3634
▁хэмжээгээрээ	-11.3635
amp	-11.3636
▁1903	-11.364
шү	-11.364
Умард	-11.3641
▁хэлжээ	-11.3643
▁үзүүрт	-11.3646
▁кон	-11.3649
▁Гэлэгжамц	-11.365
▁хэтэрхий	-11.365
▁зүүлт	-11.365
▁эзлээд	-11.3651
▁ярьсан	-11.3652
▁идэж	-11.3652
▁Her	-11.3655
▁Vida	-11.3655
▁Карри	-11.3659
:1	-11.3659
▁зарцуулж	-11.3659
бага	-11.3659
ᠳ	-11.366
▁1800	-11.3661
▁ун	-11.3662
▁Венец	-11.3663
▁Гэрсэнз	-11.3664
▁нэмрээ	-11.3664
▁өгүүллий	-11.3664
▁этгээдэд	-11.3664
▁тэмцлий	-11.3664
▁парк	-11.3666
▁ээлжлэ	-11.3667
▁1893	-11.3667
▁бичигтэй	-11.3669
▁өмгөөлөгч	-11.3669
ураасан	-11.3669
▁Гуан	-11.3672
Сити	-11.3674
FA	-11.3675
▁гүрвэл	-11.3675
ography	-11.3677
▁Рэй	-11.3677
▁Мер	-11.3679
▁өөрт	-11.3681
▁Батзориг	-11.3682
▁зохиолууд	-11.369
21.	-11.3691
▁Баку	-11.3691
▁шалтгааны	-11.3693
алд	-11.3696
▁Book	-11.3696
▁охидын	-11.3698
ck	-11.37
ν	-11.3704
▁босгож	-11.3705
ash	-11.3709
▁out	-11.3709
ув	-11.3711
etrieved	-11.3715
▁Engineering	-11.3717
▁Survey	-11.3717
▁Хаддади	-11.3717
▁ургамлыг	-11.3717
▁үүсгэгч	-11.3717
▁сургах	-11.3717
▁татгалз	-11.3717
AT	-11.3717
▁дивизион	-11.3721
▁Амгалан	-11.3721
-70	-11.3722
ули	-11.3723
▁Оргил	-11.3724
▁ардаа	-11.3726
▁байцаалт	-11.3726
▁агентлагийн	-11.3726
▁тохируулах	-11.3727
▁экспортын	-11.3727
▁тунхаглал	-11.3728
▁байгуулалтыг	-11.3728
▁Хон	-11.3728
▁Линь	-11.3732
▁Халуун	-11.3733
▁дүрсийг	-11.3735
дор	-11.3735
▁испани	-11.3741
▁хуульч	-11.3743
▁Динамо	-11.3743
▁Жак	-11.3743
▁DVD	-11.3744
▁web	-11.3745
,300	-11.3746
▁амжилтгүй	-11.3747
▁сонгогдох	-11.375
▁залгамжлан	-11.3751
Ch	-11.3752
▁Пү	-11.3752
▁Ти	-11.3753
цу	-11.3754
Re	-11.3756
ions	-11.3757
▁ялагд	-11.3759
▁3.8	-11.3762
▁Хой	-11.3764
тик	-11.3764
▁Japanese	-11.3765
лү	-11.3765
▁өрнүүлж	-11.3765
Ки	-11.377
▁Бодоо	-11.377
▁Шат	-11.3774
Хүн	-11.3774
ن	-11.3775
▁сэтгүүлд	-11.3777
▁Алма	-11.378
è	-11.378
идын	-11.3782
төр	-11.3782
3,7	-11.3782
▁Георгий	-11.3783
▁хурлы	-11.3784
▁Эквадор	-11.3784
▁тооцогдож	-11.3784
스	-11.3784
▁сонирхож	-11.3784
▁цэц	-11.3784
▁цирк	-11.3784
▁Фужянь	-11.3785
▁могой	-11.3785
▁боловсруулан	-11.3786
▁Академи	-11.3787
ete	-11.3788
▁уулзсан	-11.3789
▁Вал	-11.3791
čen	-11.3792
2004	-11.3793
бэр	-11.3794
▁Bang	-11.3794
▁Jean	-11.38
▁Лхагвасүрэн	-11.3803
▁зайлуулах	-11.3803
▁Хэсэг	-11.3803
▁Хайрхан	-11.3803
▁цусан	-11.3807
лүүлсэн	-11.3808
Австрали	-11.3808
▁доллараар	-11.3808
?"	-11.3809
▁Эй	-11.3809
▁Хурд	-11.3809
▁1,7	-11.381
▁зүтгэх	-11.3813
▁Ордны	-11.3814
▁Тив	-11.3814
▁Te	-11.3814
▁шилэн	-11.3815
▁.2	-11.3817
тах	-11.3818
▁философийн	-11.3818
▁элэг	-11.3819
▁Киданы	-11.3819
▁Soviet	-11.3821
▁учраа	-11.3822
АМ	-11.3823
▁бүсээс	-11.3823
газар	-11.3824
▁+3	-11.3824
▁112	-11.3825
үчи	-11.3826
و	-11.383
▁байрны	-11.3835
1,000	-11.3835
▁Radio	-11.3837
▁суут	-11.3838
иуд	-11.384
▁гурил	-11.3843
үүнтэй	-11.3844
▁хальс	-11.3845
]]	-11.3848
▁үүл	-11.3848
▁Mu	-11.3849
mathb	-11.385
▁Теодор	-11.3852
teilung	-11.3852
▁complete	-11.3852
▁Дмитрий	-11.3852
▁Кавальерс	-11.3852
pdf	-11.3852
▁оптик	-11.3852
▁өчүүхэн	-11.3852
▁дайчлан	-11.3852
▁эхэллээ	-11.3852
▁нийлэн	-11.3853
▁Хайнань	-11.3853
▁зүтгэлтнүүд	-11.3853
▁давшиж	-11.3854
▁дуусгасан	-11.3854
▁Хадмал	-11.3856
▁IPv	-11.3857
▁ни	-11.3859
▁бодлогод	-11.3861
▁Элбэгдорж	-11.3863
ón	-11.3863
тол	-11.3866
▁1634	-11.3867
▁хуваагдан	-11.3868
лүү	-11.3869
▁хязгаарлах	-11.387
▁Мандах	-11.387
▁хөө	-11.387
▁дуугаараа	-11.3872
▁Ганди	-11.3872
▁шавж	-11.3873
▁хамгаал	-11.3874
гоороо	-11.3881
▁Germany	-11.3881
MA	-11.3882
▁загварчлал	-11.3883
▁эсрэгээр	-11.3883
Ди	-11.3887
▁бул	-11.3888
▁(24	-11.3889
▁Чен	-11.3894
▁омог	-11.3895
ans	-11.3896
▁ОД	-11.3899
▁Астон	-11.39
▁тэгээ	-11.3901
nes	-11.3902
hy	-11.3904
алдаг	-11.3904
▁Салбар	-11.3905
▁учруулж	-11.3906
өнө	-11.3906
▁халим	-11.391
0%	-11.3911
▁хуваах	-11.3911
▁хэмжээс	-11.3912
▁Хэрэглээ	-11.3914
▁агт	-11.3915
єє	-11.3916
пур	-11.3916
▁кали	-11.3918
▁су	-11.3918
▁−0.	-11.3919
bin	-11.3919
▁Дюрант	-11.3921
▁буулгасан	-11.3921
▁цэвэрлэгээ	-11.3921
▁мөхөл	-11.3921
рэл	-11.3922
▁туурвисан	-11.3922
▁бүрдүүлсэн	-11.3923
▁Мартинес	-11.3924
▁Кабул	-11.3924
ys	-11.3925
▁Нэгдэл	-11.3926
▁төрлийг	-11.3927
▁үхрийн	-11.3927
▁0-2	-11.3927
▁харийн	-11.3927
Дин	-11.3928
▁сонгогдо	-11.3928
▁Бао	-11.3928
▁эцсээр	-11.3928
▁мөрдөх	-11.3929
▁ялахад	-11.393
▁нөөцийн	-11.3932
▁хоёрдахь	-11.3934
▁даац	-11.3936
▁Доржпалам	-11.3936
▁гэдгээрээ	-11.3936
▁нэгд	-11.3936
▁12–20	-11.3944
▁Энхбат	-11.3944
лэгдэж	-11.3945
▁Free	-11.3946
▁Зи	-11.3946
▁1886	-11.3946
ᠰ	-11.3946
Онцгой	-11.3946
▁(2000	-11.3948
▁ойлго	-11.3949
▁se	-11.3949
▁процессор	-11.395
▁Фар	-11.3952
▁савд	-11.3952
уулжээ	-11.3955
▁Ганц	-11.3958
▁Сери	-11.396
▁дайнаар	-11.3961
▁дайрах	-11.3962
▁хүчлүүд	-11.3962
▁цикл	-11.3967
ala	-11.3968
ханы	-11.3969
бель	-11.3969
▁хямралд	-11.397
▁үүргийн	-11.397
▁иргэншлийн	-11.397
▁над	-11.3971
▁Систем	-11.3976
▁мэргэжилтэй	-11.398
▁үеэл	-11.3981
БН	-11.3982
▁Рок	-11.3983
▁шалгаруулалта	-11.3983
үнь	-11.3985
▁Record	-11.3986
▁Хүртсэн	-11.399
▁тохиолддог	-11.399
▁Introduction	-11.399
▁Эгшиг	-11.399
▁төмс	-11.399
▁домайн	-11.399
▁эрэлхэг	-11.399
▁баримжаа	-11.399
▁profile	-11.399
▁ноогдох	-11.399
▁0–2	-11.399
▁Зая	-11.3991
▁сүүлт	-11.3993
▁суулгасан	-11.3993
6.	-11.3994
▁шаардагдах	-11.3994
...”	-11.3994
онго	-11.3995
▁фронтод	-11.3995
▁Уэльсийн	-11.3997
▁драмын	-11.3997
▁Death	-11.3998
▁이	-11.3998
rat	-11.3999
▁Berlin	-11.4002
▁Майк	-11.4003
Ar	-11.4003
▁Шалгар	-11.4007
▁дарааллаар	-11.4008
▁доорхи	-11.4009
▁галав	-11.4009
▁драфтаар	-11.4009
▁Rock	-11.4009
ken	-11.4009
▁удирдагчдын	-11.401
▁явахдаа	-11.401
энь	-11.4012
лик	-11.4013
τ	-11.4016
right	-11.4017
▁хүрэлцэ	-11.4018
▁бит	-11.4019
▁Буха	-11.4021
сел	-11.4022
▁Ве	-11.4025
▁эриний	-11.4026
▁Андре	-11.4027
▁хийдэд	-11.4029
▁хаанчлалын	-11.403
▁зэв	-11.403
▁нийслэлээ	-11.4031
▁Соло	-11.4033
▁Ab	-11.4034
тани	-11.4035
▁1-2	-11.4035
▁зугаа	-11.4035
▁117	-11.4036
▁хоёрдугаарт	-11.404
▁санаанд	-11.4041
хир	-11.4043
▁Бенит	-11.4045
▁Маркс	-11.4046
rk	-11.4047
ивээн	-11.4047
▁Russische	-11.4047
▁Колумби	-11.4048
▁инженерчлэл	-11.4049
▁Кызыл	-11.4054
▁Агаар	-11.4055
▁Долоогийн	-11.4056
▁үд	-11.4057
ER	-11.4057
▁Сур	-11.4057
▁танин	-11.4059
▁макро	-11.4059
▁харагдана	-11.4059
▁Biography	-11.4059
▁Нетс	-11.4059
▁идэштэн	-11.4059
▁унасны	-11.406
▁Хөгжим	-11.406
▁бүлгийг	-11.4063
▁МиГ	-11.4063
▁Цэдэндамб	-11.4063
rossi	-11.4063
ction	-11.4065
▁болгохыг	-11.4065
Үнэн	-11.4067
▁Дулаан	-11.407
▁Europe	-11.407
цаа	-11.4071
▁суралцан	-11.4071
ence	-11.4072
▁халимагууд	-11.4073
▁With	-11.4074
▁RFC	-11.4076
▁report	-11.4077
lic	-11.4077
▁олонлог	-11.4078
–3	-11.4078
▁1891	-11.4083
che	-11.4085
▁хүүхэн	-11.4087
▁бараан	-11.4087
▁хо	-11.4088
▁ялаа	-11.4088
сэ	-11.4088
▁драм	-11.4089
▁Тамирчин	-11.409
▁зохиожээ	-11.4091
▁ордын	-11.4092
зин	-11.4094
La	-11.4095
ийнхэн	-11.4096
▁House	-11.4099
▁978-0-	-11.4102
▁гаднаас	-11.4102
▁ахуйг	-11.4103
▁ду	-11.4105
▁Ерөө	-11.4108
▁унаган	-11.4111
▁чуулганаар	-11.4113
▁тарвага	-11.4113
▁дуулга	-11.4113
▁хуулбар	-11.4114
▁Хувьсгалын	-11.4117
ора	-11.4117
▁урвалд	-11.4117
мент	-11.4118
▁хя	-11.412
De	-11.4122
▁Саха	-11.4128
주	-11.4129
▁интернет	-11.4129
▁ялгардаг	-11.4129
▁Kingdom	-11.4129
▁Төмөрбаатар	-11.4129
▁хүхэр	-11.4129
КАТО	-11.4129
▁бичээч	-11.4129
▁нэвтрүүлэгт	-11.413
▁хуваарилалт	-11.413
▁угаах	-11.413
▁Тарим	-11.413
▁accessed	-11.413
▁зохистой	-11.413
▁булшны	-11.413
▁2009/10	-11.4131
мөл	-11.4131
▁хослон	-11.4133
үүлдэг	-11.4133
▁мэдүүлэг	-11.4133
▁Volume	-11.4135
▁сонссон	-11.4136
6.5	-11.4136
▁Access	-11.4136
▁хоёулаа	-11.4136
▁аймагтай	-11.4137
кен	-11.4137
▁бодсон	-11.4139
нар	-11.4143
▁3.7	-11.4144
12.	-11.4144
▁Амарсанаа	-11.4145
▁George	-11.4145
▁бодисыг	-11.4146
гах	-11.4146
▁тоогоороо	-11.4147
▁information	-11.4148
Чингис	-11.4148
cho	-11.4149
▁баавгайн	-11.415
▁Country	-11.415
▁наадмы	-11.4151
пен	-11.4153
▁da	-11.4154
▁өрнөдийн	-11.4154
▁750	-11.4155
▁тавцан	-11.4155
won	-11.4156
▁сүг	-11.4158
ake	-11.4159
▁USA	-11.416
ета	-11.4161
руулж	-11.4162
чихсэн	-11.4163
▁буурах	-11.4163
▁төлөөлөгчдий	-11.4165
▁соёрхо	-11.4165
▁анхаарла	-11.4166
▁Жинхэнэ	-11.417
▁хоолны	-11.417
rit	-11.4173
нийхээ	-11.4176
▁Миннесота	-11.4177
▁урам	-11.4178
▁Чойр	-11.4181
س	-11.4183
▁зөвлөлт	-11.4186
▁Берн	-11.4187
иран	-11.4188
▁хосгүй	-11.4188
▁күнь	-11.4189
дгийг	-11.4194
▁Чаплиний	-11.4198
ι	-11.4199
▁Ниншя	-11.4199
▁Зуунмод	-11.42
▁Хүбэй	-11.42
▁дагасан	-11.42
▁өргөтгөсөн	-11.42
▁Стр	-11.42
▁ирснээр	-11.42
▁найраглал	-11.42
▁гарцаагүй	-11.42
▁Цагааннуур	-11.4201
▁толгойлсон	-11.4201
▁хадгалан	-11.4201
▁явдлаас	-11.4201
▁хэвтээ	-11.4201
▁Open	-11.4202
нямбууг	-11.4202
▁Java	-11.4202
▁7.4	-11.4202
▁Out	-11.4203
▁тайлбарлах	-11.4204
▁Alexander	-11.4204
▁өргөтгөл	-11.4206
▁Лукас	-11.4206
▁Баасан	-11.4207
▁тосгонд	-11.4208
▁хорооноос	-11.4208
▁кв	-11.4209
▁мандлын	-11.4209
▁Днепр	-11.421
ну	-11.4211
▁Академийн	-11.4211
ОШ	-11.4212
лэгддэг	-11.4213
▁гүйлгээн	-11.4215
▁Иосиф	-11.4216
▁Макс	-11.4218
▁Пакистаны	-11.4218
▁Ялалт	-11.4219
▁Жексон	-11.4219
▁эхлэхэд	-11.4221
berg	-11.4222
▁Питер	-11.4225
гэл	-11.4229
Цэдэнбал	-11.4232
▁хагарал	-11.4236
▁Угсаат	-11.4236
▁Чой	-11.4239
▁хуурч	-11.424
▁Британы	-11.4241
▁молекулууд	-11.4241
Со	-11.4241
▁залгава	-11.4242
–22,	-11.4242
▁Машин	-11.4244
▁гэдгээс	-11.4246
▁5.4	-11.4247
▁зэвсэглэл	-11.425
▁Жилд	-11.4251
▁number	-11.4253
Халх	-11.4253
▁бэлчээрийн	-11.4253
▁өд	-11.4254
▁алдры	-11.4256
▁нийлүүлэ	-11.4257
тусгайлан	-11.4257
мөн	-11.4258
амж	-11.426
юк	-11.4261
▁Хаалт	-11.4261
удахгүй	-11.4262
лосон	-11.4264
▁194	-11.4267
▁Замналын	-11.4269
▁Education	-11.427
旗	-11.427
▁зохиомол	-11.4271
▁тэнцсэн	-11.4271
▁хослол	-11.4271
▁шүтэ	-11.4272
▁Army	-11.4272
▁хуулинд	-11.4273
taatliche	-11.4273
▁гараалсан	-11.4274
▁дайрсан	-11.4274
SO	-11.4275
▁болгосноор	-11.4275
▁Нэгээс	-11.4276
▁тохиролцсон	-11.4276
▁буцаад	-11.4278
▁126	-11.4279
▁суугчдын	-11.4279
▁car	-11.4283
тад	-11.4283
▁орлоготой	-11.4284
▁барахад	-11.4284
▁Троцкий	-11.4286
▁Папуа	-11.4288
ros	-11.4289
▁байгуулахыг	-11.429
zi	-11.429
хыг	-11.4293
▁шимт	-11.4296
▁шинжүүд	-11.4297
▁амжилтанд	-11.4298
▁Финландын	-11.4298
▁Кат	-11.43
▁шийдвэрийн	-11.4301
▁түрэлт	-11.4302
▁мянгат	-11.4304
▁дуудах	-11.4307
▁хэдийн	-11.4307
▁(%)	-11.4308
▁signs	-11.4312
▁(1993	-11.4317
фү	-11.4318
▁бэлчир	-11.4318
▁Швейцарын	-11.4318
▁Рой	-11.4323
▁хайх	-11.4326
араат	-11.4326
▁нурууг	-11.4327
▁Рассел	-11.4328
▁Ганболд	-11.4329
ᠣ	-11.4329
▁Рон	-11.4331
▁тө	-11.4331
▁вангууд	-11.4331
Бар	-11.4332
▁Constitution	-11.434
성	-11.4342
▁Ltd	-11.4342
▁Маверикс	-11.4342
▁витамин	-11.4342
▁Dienst	-11.4342
▁Соннам	-11.4342
▁радиус	-11.4343
▁ангилна	-11.4343
▁Түргэн	-11.4343
▁санаачлан	-11.4343
▁илрүүлсэн	-11.4343
▁Онгон	-11.4343
2007	-11.4344
▁тархжээ	-11.4344
▁хөрсийг	-11.4344
▁Jin	-11.4345
▁гэрээлэв	-11.4346
Ал	-11.4346
▁биетүүд	-11.4346
▁Тел	-11.4346
30-	-11.4346
▁Box	-11.4348
лз	-11.4349
▁оролцуулах	-11.4351
▁хорь	-11.4354
▁Хөндлөн	-11.4354
jsk	-11.4356
▁ft	-11.4357
▁Hit	-11.4357
▁ال	-11.4357
▁хүнээр	-11.4358
жуулсан	-11.4364
ial	-11.4365
▁гоолын	-11.4368
▁Британичууд	-11.4368
чуудад	-11.4369
эхэд	-11.437
ати	-11.4371
ú	-11.4371
540	-11.4372
▁тэмдэглэв	-11.4374
▁асуулга	-11.4376
▁зуут	-11.4377
▁Юү	-11.4379
оцон	-11.438
▁станцын	-11.438
OH	-11.4384
ID	-11.4385
▁Буян	-11.4385
▁26,	-11.4386
бус	-11.4388
Одоогийн	-11.4388
Эрдэн	-11.439
▁Гомбосүрэн	-11.4391
▁Өлзий	-11.4392
▁Театр	-11.4393
кв	-11.4394
▁нөлөөллий	-11.4396
▁шөвгөрч	-11.4397
hyun	-11.4397
▁bet	-11.44
▁Им	-11.4401
▁Ишдорж	-11.4403
мба	-11.4404
▁гуйх	-11.4407
▁сүв	-11.4412
▁90%	-11.4414
▁тектоник	-11.4414
▁Revised	-11.4414
▁теорем	-11.4414
▁инээдмийн	-11.4414
nzahl	-11.4414
▁Валют	-11.4414
▁Линукс	-11.4414
▁бохирдол	-11.4414
▁мэлхий	-11.4414
▁шалгаран	-11.4414
▁сонгогддог	-11.4415
▁Паласиос	-11.4415
▁олгоно	-11.4416
етт	-11.4418
▁Cr	-11.4418
▁дарангуйлал	-11.4418
▁Ордын	-11.4419
чүүдийн	-11.4419
хээс	-11.4419
▁боржин	-11.4419
▁уулыг	-11.4419
▁Хадбаатар	-11.4419
▁Түркмен	-11.4421
▁Бангкок	-11.4422
▁хаш	-11.4424
▁сурсан	-11.4424
▁суулга	-11.4426
▁Ангараг	-11.4426
ддаг	-11.4426
▁урсан	-11.4427
▁бичихдээ	-11.4427
илов	-11.4428
аргын	-11.4429
▁үүд	-11.443
▁Сунь	-11.443
▁(1982)	-11.4431
▁Литв	-11.4433
▁(1988)	-11.4433
▁сайжруулж	-11.4435
билэг	-11.4439
▁Эдуард	-11.444
▁Портленд	-11.4441
▁Ленинградын	-11.4441
Үүд	-11.4441
икс	-11.4442
▁тоглогчдын	-11.4445
▁газарзүй	-11.4446
▁хэрэгцээнд	-11.4448
▁шинэчлэх	-11.4449
кет	-11.4449
▁хоёроос	-11.4449
▁нээлтийн	-11.445
▁Вай	-11.4455
Тэр	-11.4456
▁Малай	-11.4457
▁хүүхэлдэйн	-11.4457
▁са	-11.4458
жэнь	-11.446
2-1	-11.446
▁At	-11.4463
nis	-11.4463
▁босгох	-11.4464
▁Ге	-11.4467
Ата	-11.4468
▁өрөөнд	-11.4471
лэгдэнэ	-11.4474
▁төрүүлж	-11.4477
▁(2003	-11.4478
▁эзэмшигч	-11.4479
▁үүрэгт	-11.4479
▁мон	-11.4482
▁Che	-11.4482
▁Эсте	-11.4484
▁Дорн	-11.4484
Infobox	-11.4486
▁Владивосток	-11.4486
▁Гибралтар	-11.4486
▁ёкозүна	-11.4486
▁Өэлүн	-11.4486
▁Хуурай	-11.4486
▁төгсөж	-11.4486
▁Telegraph	-11.4486
▁Хамгаалах	-11.4486
▁Василий	-11.4486
▁Мандела	-11.4486
▁сонсож	-11.4486
▁хошин	-11.4487
▁>	-11.4487
▁бургас	-11.4487
▁Гуандун	-11.4487
▁хүргэдэг	-11.4487
▁чөлөөлсөн	-11.4487
▁Багануур	-11.4487
▁эхэлснээр	-11.4488
▁Эрдэнэдалай	-11.4488
▁Желал	-11.4488
▁зэвсэглэсэн	-11.4489
▁Хуралд	-11.4489
▁халдах	-11.449
▁Афганы	-11.4492
▁ертөнцийг	-11.4493
▁болгоод	-11.4494
▁Флорида	-11.4495
▁үлдээжээ	-11.4496
▁Taylor	-11.4496
▁Улстай	-11.4496
шу	-11.4498
чен	-11.4498
▁ерөнхийд	-11.45
LE	-11.45
jin	-11.4501
▁өмнөхөн	-11.4504
▁бололцоотой	-11.4505
ока	-11.4505
▁ургах	-11.4505
▁хүндэтгэл	-11.4506
▁360	-11.4506
воос	-11.4507
▁хүртэх	-11.4508
▁хөгжмий	-11.4508
▁гаргасны	-11.451
6:30	-11.451
▁Chelsea	-11.4511
гана	-11.4512
▁довтлогчоо	-11.4514
▁багачууд	-11.4515
▁үзэгч	-11.452
▁сүүлээс	-11.452
▁Хэрэг	-11.452
▁кал	-11.4521
араа	-11.4523
▁тоос	-11.4523
▁Хутаг	-11.4525
▁тушаалаа	-11.4525
▁хүрэв	-11.4526
▁гиш	-11.453
▁гайхамшигтай	-11.4535
▁How	-11.4535
ight	-11.4535
▁MV	-11.4537
өс	-11.4537
як	-11.4539
▁сайдыг	-11.4539
low	-11.4539
▁оч	-11.4539
▁адаг	-11.4542
▁хөшөөг	-11.4543
▁эзэлхүүн	-11.4544
▁дугуйг	-11.4547
ى	-11.4547
▁арьсны	-11.4547
▁дурд	-11.4549
▁Очирбат	-11.4549
▁ха	-11.4556
▁үнэр	-11.4557
▁vi	-11.4557
▁дэл	-11.4558
ʹ	-11.4559
▁Ireland	-11.4559
▁Төгрөг	-11.4559
▁Хабаровск	-11.4559
▁Эрнандес	-11.4559
▁шөвгөрсөн	-11.456
▁алслагдсан	-11.456
▁Эрдэнэбүрэн	-11.456
▁халдаж	-11.4561
▁үйлчилдэг	-11.4562
▁Чарли	-11.4562
▁усаа	-11.4563
хэрвээ	-11.4563
▁тариачин	-11.4564
▁цасан	-11.4564
▁зурхай	-11.4564
үхлийн	-11.4565
▁Mnet	-11.4566
tal	-11.4566
▁дайр	-11.4566
▁давших	-11.4566
▁Vse	-11.4566
form	-11.4568
▁тойрны	-11.4568
▁хүчирхэгжин	-11.4568
вон	-11.4569
▁Play	-11.4569
▁нуга	-11.4571
▁хасах	-11.4572
▁сүүлдээ	-11.4573
▁Кун	-11.4574
акс	-11.4575
▁нутагладаг	-11.4577
оё	-11.458
▁Тэгү	-11.4581
pt	-11.4582
▁Иранд	-11.4584
▁инженерүүд	-11.4585
ps	-11.4587
шигласан	-11.4588
rum	-11.4589
▁Дав	-11.4593
иймэл	-11.4593
▁Өв	-11.4594
Судр	-11.4594
▁118	-11.4594
▁далбааг	-11.4596
▁Алекс	-11.4597
▁Судр	-11.4599
▁10000	-11.4602
шуу	-11.4604
▁мэдээллээр	-11.4604
▁гинж	-11.4608
▁өс	-11.461
лайн	-11.461
▁Амьдралын	-11.461
▁мужлал	-11.4611
▁худалдаачд	-11.4613
ангийн	-11.4613
цогт	-11.4614
хний	-11.4615
▁томилогд	-11.4615
▁Island	-11.4615
▁Sal	-11.4617
шан	-11.4617
▁зэвсэгтэй	-11.4618
▁ачаалал	-11.462
9;	-11.4621
▁хүйсийн	-11.4621
снээс	-11.4622
▁захирагдах	-11.4623
▁багадаа	-11.4627
▁теннис	-11.4631
▁моторт	-11.4632
▁Рам	-11.4632
▁Лэйкерс	-11.4633
▁perepis	-11.4633
▁Ихэвчлэн	-11.4633
▁түлхэц	-11.4633
▁ахисан	-11.4633
▁балчир	-11.4633
▁Ростов	-11.4633
togi	-11.4635
▁дагаад	-11.4636
▁үндэслэж	-11.4637
▁ажилчдын	-11.464
▁шуугиан	-11.4641
▁дебют	-11.4644
ям	-11.4644
▁Дж	-11.465
ьд	-11.4652
▁Хилл	-11.4652
лдсэн	-11.4654
▁хувьцаат	-11.4655
▁Green	-11.4656
▁буур	-11.4659
ито	-11.466
▁Номын	-11.4661
Өмнө	-11.4661
▁машинууд	-11.4662
▁174	-11.4664
Ай	-11.4666
3,0	-11.4666
▁Бек	-11.4667
Европ	-11.4668
улбар	-11.4668
December	-11.4669
▁гурв	-11.4669
▁ардыг	-11.4671
▁news	-11.4672
ени	-11.4673
▁польш	-11.4676
ile	-11.4678
▁буланг	-11.4679
▁Австралид	-11.4684
▁Кү	-11.4685
▁100%	-11.4686
про	-11.4687
За	-11.4688
▁Гран	-11.4689
lia	-11.4689
▁насныхан	-11.4691
▁насыг	-11.4694
▁190	-11.4694
▁Гүр	-11.4696
▁өөх	-11.4696
6–1	-11.4698
▁Цомгийн	-11.4701
▁үзмэр	-11.4701
▁давамгай	-11.4702
Ардын	-11.4703
▁8.2	-11.4704
орт	-11.4704
▁хасагууд	-11.4705
mol	-11.4706
▁чанарууд	-11.4707
▁Византийн	-11.4707
▁Twitter	-11.4707
▁Намъянжү	-11.4707
▁Цагаанчулуут	-11.4707
▁сэтгэгдэл	-11.4707
▁харанхуй	-11.4707
▁goda	-11.4707
▁Того	-11.4707
▁Вин	-11.4707
▁хэмжигдэхүүн	-11.4707
▁Зүүнговь	-11.4708
▁хамрах	-11.4708
▁ховил	-11.4708
▁орвол	-11.4708
▁хадгалдаг	-11.4709
▁өгүүлэх	-11.4709
▁бүсчлэл	-11.471
▁мөрнөөс	-11.471
▁Израйль	-11.4711
илсан	-11.4711
▁цогцолборт	-11.4712
▁бээр	-11.4713
▁−2	-11.4717
▁Цахиур	-11.4717
▁хуулиа	-11.4719
▁сургуулиудын	-11.4721
▁тү	-11.4724
▁Баарин	-11.4724
+1	-11.4727
Авив	-11.4727
ные	-11.4728
▁өргөмжлө	-11.4728
St	-11.4729
▁нийслэлд	-11.4729
▁Гишүүн	-11.4733
▁Косов	-11.4736
▁эхэлнэ	-11.4737
▁хувилбараар	-11.4737
18-	-11.4742
▁Соёмбо	-11.4742
د	-11.4745
▁Оклахома	-11.4745
ān	-11.4746
▁Библ	-11.4747
ням	-11.4747
▁Ju	-11.4749
арга	-11.475
англиар	-11.4752
▁буйгаар	-11.4753
▁цэн	-11.4756
▁эрэмбэ	-11.4756
▁Штутгарт	-11.4757
▁(2011).	-11.4758
▁бу	-11.4758
▁Хутагт	-11.4759
▁End	-11.4759
▁эсэргүүцл	-11.476
eus	-11.476
▁Сол	-11.4762
▁450	-11.4763
▁^	-11.4764
▁Пен	-11.4765
агдаж	-11.477
▁студийн	-11.477
▁барааны	-11.4778
nn	-11.4778
▁Пре	-11.4779
▁Föderation	-11.4781
▁Heritage	-11.4781
▁Ганьсу	-11.4781
▁Заубер	-11.4781
▁угсарсан	-11.4781
▁Өндөрхангай	-11.4781
▁хуваасан	-11.4782
▁Роверс	-11.4782
▁Михайлович	-11.4782
▁Нелсон	-11.4782
▁Public	-11.4782
▁Night	-11.4783
▁Бороотой	-11.4784
▁тэмдэглэснээр	-11.4784
йс	-11.4785
▁Хатанбаатар	-11.4786
▁цомгийг	-11.4787
▁системээр	-11.4788
▁үзэгчдийн	-11.4789
▁зэрэглэлийн	-11.479
▁үзэгдэх	-11.479
▁India	-11.4791
▁урлагийг	-11.4791
sc	-11.4792
▁Роман	-11.4792
▁Филадельфи	-11.4793
hn	-11.4793
iss	-11.4794
▁Games	-11.4794
▁article	-11.4795
▁нягтшил	-11.4795
лүүлэх	-11.4795
▁Түрүүлсэн	-11.4797
▁Бус	-11.4797
Cl	-11.4799
▁сонгоно	-11.4804
▁байн	-11.4806
▁шагналд	-11.4807
ico	-11.4807
▁Каир	-11.481
▁(1991	-11.4814
зу	-11.4815
illa	-11.4816
cher	-11.4816
▁Ocean	-11.4817
August	-11.482
Хоёр	-11.482
▁media	-11.4822
▁улстөрч	-11.4823
ОР	-11.4825
▁Райн	-11.4827
пүрэв	-11.4828
▁Cu	-11.4828
▁дорой	-11.4829
лө	-11.483
▁Мэргэжил	-11.483
▁энгэр	-11.4832
хийг	-11.4833
▁баяд	-11.4834
▁цэвэрлэх	-11.4835
XVII	-11.4835
▁Франко	-11.4836
▁win	-11.4838
▁Байгалын	-11.4841
▁Шанду	-11.4841
▁хамгаалал	-11.4842
мет	-11.4842
▁хоолойг	-11.4845
▁8.3	-11.4848
ase	-11.4849
▁материалыг	-11.4849
снийг	-11.4851
▁хүнсэнд	-11.4852
▁багаасаа	-11.4855
гур	-11.4856
ی	-11.4856
ş	-11.4857
▁California	-11.4857
▁Protocol	-11.4857
▁Сүбэдэй	-11.4857
▁бүтцэд	-11.4857
▁эсхүл	-11.4857
▁язык	-11.4857
▁Edward	-11.4857
▁захирлаар	-11.4857
▁карьер	-11.4857
▁илэрдэг	-11.4857
▁Junior	-11.4857
▁үүсэв	-11.4857
▁хэрэгжүүлдэг	-11.4858
▁Бир	-11.4859
▁Чечень	-11.4859
▁зарцуулсан	-11.4859
▁тооцоогоор	-11.486
▁Ойрхи	-11.4863
лиз	-11.4863
лэхэд	-11.4864
▁гувчуур	-11.4865
▁үйлдвэрлэн	-11.4865
▁Самбуу	-11.4866
▁хаасан	-11.4867
▁ЧШ	-11.4868
ева	-11.4869
▁Илья	-11.4869
үүлэгч	-11.487
▁бэр	-11.4872
▁Яв	-11.4873
▁өвөө	-11.4873
ram	-11.4873
▁Коростовец	-11.4873
лсон	-11.4875
▁дурсгалд	-11.4875
▁чартад	-11.4875
огдох	-11.4875
▁0.7	-11.4876
бен	-11.4877
▁өргөжүүлэх	-11.4877
▁хядлага	-11.4879
▁Торго	-11.4881
▁огцорч	-11.4881
▁эрхтнүүд	-11.4882
▁Бах	-11.4883
пар	-11.4884
▁аялгуунд	-11.4885
▁шагналтан	-11.4887
▁Queen	-11.4889
▁ШХ	-11.489
way	-11.4891
jo	-11.4892
▁мэргэд	-11.4892
Баяр	-11.4892
▁борооны	-11.4893
football	-11.4896
Польш	-11.4896
▁устөрөгчийн	-11.4897
▁Эхэн	-11.4899
▁өвүүд	-11.49
▁Атомын	-11.4901
Гэр	-11.4902
баруун	-11.4904
▁зөрчилдөөн	-11.4908
▁айлд	-11.491
араб	-11.4911
▁зориулалт	-11.4912
▁наст	-11.4912
үхмэ	-11.4913
ney	-11.4914
▁давтамж	-11.4915
▁дагуулах	-11.4915
▁явуулахад	-11.4918
▁2000,	-11.4918
oo	-11.492
▁дугаарын	-11.4921
▁Кипчак	-11.4923
ных	-11.4923
лли	-11.4923
▁хэвлэн	-11.4925
Хот	-11.4926
11-201	-11.4929
▁баялг	-11.4931
Дамдины	-11.4931
▁чадварын	-11.4931
▁талст	-11.4932
▁Бачка	-11.4932
▁Čislennost	-11.4932
▁Вьентьян	-11.4932
▁олтриг	-11.4932
▁Халиун	-11.4932
▁2008/09	-11.4932
▁баттай	-11.4932
▁тодорхойлно	-11.4933
▁raz	-11.4933
▁хоёрдогч	-11.4933
ue	-11.4937
▁гү	-11.4939
лууд	-11.4941
ture	-11.4941
▁Jo	-11.4943
▁судлан	-11.4943
cul	-11.4945
▁зөрчин	-11.4945
фер	-11.4947
▁нэвтрүүлж	-11.4948
ED	-11.4948
ᠤ	-11.4951
Жи	-11.4951
ami	-11.4957
▁Лаосын	-11.4961
ت	-11.4963
▁Манас	-11.4966
▁ГГ	-11.4966
▁хонхор	-11.4967
▁Ээж	-11.4968
▁7000	-11.4968
Нацагдорж	-11.4973
▁хийцтэй	-11.4975
▁Last	-11.4977
уулалт	-11.4979
▁Хаяа	-11.4979
▁Гурв	-11.4985
▁3.9	-11.4986
▁Үелэ	-11.4992
▁явагд	-11.4994
IA	-11.4997
᠊	-11.4997
эвч	-11.4997
өнд	-11.5001
ich	-11.5005
▁sub	-11.5006
▁тур	-11.5008
▁Ско	-11.5009
▁Tabellen	-11.5009
▁Альфред	-11.5009
▁Харамсалтай	-11.5009
▁Charles	-11.5009
▁Наггетс	-11.5009
대	-11.5009
▁Жянсү	-11.5009
▁Оролцсон	-11.5009
▁Олег	-11.5009
▁үзүүлэв	-11.5009
▁нэрийдсэн	-11.5009
▁алагджээ	-11.501
▁Сагил	-11.501
▁үйлдвэрлэлт	-11.501
▁Чингэлтэй	-11.5011
сун	-11.5011
▁En	-11.5011
▁дарь	-11.5012
▁чихэр	-11.5013
▁Төгс	-11.5013
▁хоттой	-11.5014
▁тайжийн	-11.5016
Si	-11.5017
▁дураараа	-11.502
▁депутат	-11.502
of	-11.5022
▁-2	-11.5026
ther	-11.5026
▁Шоу	-11.5032
лет	-11.5033
▁1894	-11.5033
▁Dan	-11.5034
▁анхныхаа	-11.5034
эрсэн	-11.5035
мир	-11.5036
▁цутгал	-11.5037
▁өрлөг	-11.5038
▁цогцос	-11.5038
рүүгээ	-11.504
BS	-11.5041
▁Дел	-11.5041
-05-2	-11.5042
▁хэлэлцүүлгий	-11.5044
▁эрсдэлтэй	-11.5045
▁орохыг	-11.5046
дис	-11.5046
Америк	-11.5049
ρ	-11.5049
ваас	-11.5049
ua	-11.505
▁Робин	-11.505
Download	-11.5051
▁Сав	-11.5051
→	-11.5051
▁Дамдинсүрэнг	-11.5052
▁хуулиуд	-11.5054
᠋	-11.5056
▁хийлээ	-11.5059
▁Говийн	-11.506
▁part	-11.5061
ся	-11.5062
▁2017-	-11.5062
▁Поло	-11.5064
▁засч	-11.5064
▁бололцоог	-11.5064
▁өөрчлөгдөх	-11.5066
▁Ri	-11.5067
▁судас	-11.5069
▁хэрэгцээтэй	-11.507
vom	-11.507
ogen	-11.5071
▁салган	-11.5071
▁Over	-11.5072
▁үндэстэнУлс	-11.5072
▁Фэн	-11.5073
▁Sc	-11.5074
хань	-11.5074
▁20%	-11.5077
▁авт	-11.5082
суудлыг	-11.5085
▁Acquire	-11.5086
▁квадрат	-11.5086
▁сэлэм	-11.5086
▁удирдаач	-11.5086
▁Куанжү	-11.5086
▁−8.	-11.5086
▁Programme	-11.5086
▁эзэмшлийн	-11.5086
▁нэвтрүүлсэн	-11.5086
▁Өвөл	-11.5087
▁харьяалагдаж	-11.5087
ual	-11.5087
▁хөгжжээ	-11.5087
▁тасарч	-11.5087
▁нүүдэлчид	-11.5088
▁Итгэл	-11.5088
▁used	-11.5089
▁Германчууд	-11.5089
▁Орны	-11.5089
▁Оман	-11.5089
вор	-11.5089
▁шинэтгэл	-11.509
▁овгийнхон	-11.5091
▁хоп	-11.5092
бас	-11.5095
▁хүчинтэй	-11.5095
▁system	-11.5096
▁£	-11.5097
▁хэлбэрүүд	-11.5097
▁Барилга	-11.5099
▁үзэмчин	-11.51
▁Дор	-11.5101
▁ханддаг	-11.5101
▁клубийн	-11.5105
▁хоёул	-11.5108
▁Сумъяа	-11.511
▁юань	-11.5111
▁Улиастайн	-11.5114
▁задлан	-11.5114
▁Батсуурь	-11.5114
▁байлгаж	-11.5115
▁1848	-11.5115
▁Pi	-11.5117
арч	-11.5119
члан	-11.5119
солонгос	-11.5121
▁бордоо	-11.5121
▁санаж	-11.5121
▁languages	-11.5122
4,000	-11.5125
▁авалтын	-11.5127
February	-11.5129
▁гэдгээр	-11.5129
Буриад	-11.5129
ЗХУ	-11.5131
▁эгшгий	-11.5133
IV	-11.5139
тгэл	-11.514
-19-	-11.514
▁Програм	-11.5141
енко	-11.5143
▁германчууд	-11.5143
▁экспедиц	-11.5144
аба	-11.5146
▁жүн	-11.5148
▁зоригт	-11.5151
▁амралтын	-11.5153
Мар	-11.5153
▁холбогдон	-11.516
▁жам	-11.516
▁Бүсийн	-11.5161
도	-11.5163
▁Council	-11.5163
▁family	-11.5163
▁Андорра	-11.5163
▁Драгич	-11.5163
▁Хоккайдо	-11.5163
▁гидравлик	-11.5163
▁хоккей	-11.5163
▁Бичлэг	-11.5163
▁шагнагджээ	-11.5163
▁Тодруулбал	-11.5163
▁тарьж	-11.5163
▁гомдол	-11.5163
▁Abge	-11.5164
▁ШУА	-11.5164
▁хичээллэж	-11.5164
гэрэл	-11.5165
▁клубтэй	-11.5165
▁алдагдсан	-11.5166
▁үйлдвэрлэгдсэн	-11.5166
▁1,8	-11.5167
▁Шагдар	-11.5167
▁Шинж	-11.5167
▁итгэх	-11.5167
▁зоригтой	-11.5168
▁Банат	-11.5169
▁шугамаар	-11.517
▁журмаар	-11.5171
▁хатад	-11.5171
▁оруулснаар	-11.5172
▁хир	-11.5172
,000	-11.5172
▁(1989)	-11.5173
▁дуудаж	-11.5173
gl	-11.5175
▁хүмүүстэй	-11.5175
▁хойчис	-11.5176
▁секундэд	-11.5176
▁дугаарт	-11.5177
▁Хэй	-11.5177
▁яст	-11.5177
ийх	-11.5178
ьян	-11.5178
#	-11.5179
▁Коул	-11.518
▁Ghost	-11.518
арсан	-11.5181
▁Жамуха	-11.5183
▁Гучин	-11.5184
лок	-11.5184
▁суугаад	-11.5185
▁Эрдэнэбулган	-11.5186
▁сурган	-11.5186
▁массын	-11.5188
▁фр	-11.5188
ᠪ	-11.5188
▁Баттулга	-11.5188
▁Дагвадорж	-11.519
олджээ	-11.519
▁дуусгах	-11.519
▁дэвших	-11.519
▁1635	-11.5191
ЛА	-11.5192
▁Азиас	-11.5192
▁1388	-11.5194
▁Мюллер	-11.5195
лож	-11.5198
▁нутаглах	-11.52
▁Хэмжээ	-11.52
▁Je	-11.5201
2016	-11.5203
Ду	-11.5203
▁хурдас	-11.5204
▁Act	-11.5205
▁хөшөөний	-11.5206
▁Дамбийжанцан	-11.5206
▁Үл	-11.5208
АЛ	-11.5208
▁програмчлал	-11.5209
лэй	-11.5211
члах	-11.5212
▁танилцуулах	-11.5212
▁so	-11.5213
▁ламыг	-11.5214
▁зогсоол	-11.5216
Ме	-11.5216
▁Сай	-11.5218
▁шинэчилж	-11.5219
▁ионы	-11.522
НЫ	-11.5221
ON	-11.5222
▁Ы	-11.5223
ever	-11.5223
charts	-11.5228
▁хөлгийн	-11.5229
▁машиныг	-11.523
▁Hall	-11.5231
▁Минь	-11.5231
▁уусдаг	-11.5231
▁Буу	-11.5231
▁чадвараар	-11.5232
č	-11.5232
▁симфони	-11.5232
▁захиалга	-11.5234
2014	-11.5237
1938	-11.5237
▁аваргаар	-11.5239
чний	-11.5241
ش	-11.5241
▁Föderale	-11.5241
▁Stories	-11.5241
▁Буффон	-11.5241
▁Дамаск	-11.5241
▁тайвны	-11.5241
▁Цагдаагийн	-11.5241
▁харьцах	-11.5241
ири	-11.5242
▁агуулагддаг	-11.5242
Fe	-11.5242
▁тодотгол	-11.5242
▁агуулна	-11.5242
▁Weekly	-11.5242
▁Цэцэг	-11.5242
▁Хатуу	-11.5243
▁танилцсан	-11.5243
▁зориулалтын	-11.5243
▁Берлиний	-11.5243
▁танхимтай	-11.5243
▁Elemente	-11.5244
▁гоц	-11.5245
▁цэнэтэй	-11.5246
▁60-	-11.5248
▁НКВД	-11.5248
▁хандалт	-11.525
▁платформ	-11.5251
▁Kang	-11.5251
▁улиралын	-11.5252
▁алдагдал	-11.5252
ют	-11.5253
▁онгоцнууд	-11.5253
ult	-11.5256
UN	-11.5258
▁занги	-11.526
▁устган	-11.5261
▁удирд	-11.5261
гуа	-11.5263
▁state	-11.5263
▁Хөл	-11.5264
▁төлөвлөгөөний	-11.5265
▁Liverpool	-11.5267
яр	-11.5267
tes	-11.5268
стра	-11.527
▁1758	-11.5273
▁импорт	-11.5275
▁Bio	-11.5276
▁Бямбадорж	-11.528
▁~	-11.528
яо	-11.5281
▁төсөлд	-11.5284
▁хөрстэй	-11.5285
▁ойгоор	-11.5286
μ	-11.5287
act	-11.5288
ere	-11.5293
▁нөлөөлжээ	-11.5293
RI	-11.5294
Иран	-11.5295
ui	-11.5297
▁зорилгоо	-11.5298
▁0–3	-11.5299
▁тооцон	-11.5299
▁го	-11.53
▁Батсайхан	-11.5302
▁Yu	-11.5303
▁эмзэг	-11.5303
vis	-11.5303
Үүл	-11.5304
▁Томск	-11.5305
▁165	-11.5308
▁аллага	-11.5308
▁цөллөг	-11.5309
Карл	-11.5311
▁Уламжлалт	-11.5315
▁Марио	-11.5315
▁Mor	-11.5318
▁Roshydromet	-11.532
▁олдоогүй	-11.532
▁редактор	-11.532
▁Жөжян	-11.532
行省	-11.532
▁амжаагүй	-11.532
▁атлас	-11.532
▁жанжид	-11.532
▁чадлыг	-11.532
▁даргыг	-11.532
▁багассан	-11.532
▁хожлын	-11.532
▁шүүмжилж	-11.532
▁чинээлэг	-11.5321
▁күнз	-11.5322
▁нэрлэгджээ	-11.5322
▁дүйз	-11.5323
▁тэмдэглэнэ	-11.5323
1939	-11.5324
▁хашсан	-11.5324
▁Судан	-11.5329
▁бур	-11.533
▁Ант	-11.533
▁Пусан	-11.5333
▁талх	-11.5334
▁Тигра	-11.5335
time	-11.5336
▁сурагчд	-11.5338
–15,	-11.5339
key	-11.534
▁дагуух	-11.5342
▁Frank	-11.5343
▁Historical	-11.5343
▁Sam	-11.5345
63)	-11.5345
ектор	-11.5346
уда	-11.5346
агаар	-11.5346
4.4	-11.5347
▁төвшинд	-11.5351
▁цэгүүд	-11.5354
▁хадан	-11.5359
▁байрлуулж	-11.5359
енц	-11.536
төв	-11.536
ленд	-11.5362
▁Род	-11.5362
▁Туркестаны	-11.5366
Me	-11.5367
Марино	-11.5367
Хүүхэд	-11.5367
▁хань	-11.537
ire	-11.537
▁дэлгэр	-11.5372
▁тэн	-11.5377
▁Сансрын	-11.5377
▁139	-11.5379
▁Review	-11.5382
▁өвчнийг	-11.5383
▁баривчилж	-11.5384
▁Долоо	-11.5385
элгүй	-11.5385
Лиг	-11.5386
▁бичгүүд	-11.5395
тэд	-11.5396
▁олдворууд	-11.5399
▁Civil	-11.5399
▁зөрчиж	-11.54
▁ялгарч	-11.54
▁өндөрлөж	-11.54
▁хооллодог	-11.54
Болд	-11.54
▁патент	-11.5401
өртлөө	-11.5401
▁сургаж	-11.5401
▁Ham	-11.5401
▁дэгдэж	-11.5401
▁мэдээлэв	-11.5402
▁ахиц	-11.5403
1,6	-11.5403
▁Улаанхад	-11.5404
▁ойлгодог	-11.5404
иев	-11.5405
▁Hong	-11.5405
▁хаагчид	-11.5405
▁Русь	-11.5405
▁Засаглал	-11.5405
▁эргээс	-11.5407
▁шүтэж	-11.5407
▁Nature	-11.5408
гээд	-11.5409
хаг	-11.5409
▁бичигдэх	-11.5409
▁Бари	-11.5409
▁Цэнгэл	-11.5411
▁шинжилгээгээр	-11.5412
▁суртахууны	-11.5413
▁диаметр	-11.5414
▁nich	-11.5415
log	-11.5416
▁шиш	-11.5416
▁More	-11.5417
▁el	-11.5419
▁зугата	-11.5419
,400	-11.542
▁0-7	-11.542
▁Кир	-11.542
▁хэсгүүдэд	-11.5421
side	-11.5422
▁Боруссиа	-11.5423
ES	-11.5424
▁хэрэгтээ	-11.5424
▁(1957)	-11.5425
▁барга	-11.5425
▁субъект	-11.5426
▁хавь	-11.543
▁татгалзах	-11.5434
нас	-11.5434
▁доошгүй	-11.5435
эрэг	-11.5439
TV	-11.544
▁огцрох	-11.544
▁бух	-11.5441
олд	-11.5442
еф	-11.5442
ene	-11.5443
TP	-11.5443
▁Бухар	-11.5444
▁шууданг	-11.5445
▁философич	-11.5445
▁Rap	-11.5446
정	-11.5447
Баттулга	-11.5448
▁Ph	-11.5448
Бенц	-11.545
▁эзний	-11.5451
▁генүүд	-11.5452
▁засал	-11.5452
зүй	-11.5453
Амар	-11.5454
Рико	-11.5455
Канад	-11.5455
▁Бямба	-11.5455
Хатан	-11.5457
Дээд	-11.5461
▁Пенни	-11.5461
▁Сами	-11.5463
арлаас	-11.5463
▁1,000	-11.5466
▁−4.	-11.5466
▁sc	-11.5471
▁Чун	-11.5471
▁Хав	-11.5471
ологийн	-11.5472
лжээ	-11.5472
▁хэмжээнээс	-11.5473
ons	-11.5474
тархай	-11.5475
▁загалмай	-11.5475
▁ирвэс	-11.5479
▁дурссан	-11.5479
▁шагнагдсан	-11.5479
2003	-11.548
▁даншиг	-11.548
▁нийлүүлсэн	-11.548
▁телефон	-11.548
▁Хуулийн	-11.548
▁Хатгал	-11.548
▁Кальци	-11.548
▁Баяндэлгэр	-11.548
▁зориуд	-11.548
Ro	-11.548
▁ноёрхож	-11.5481
▁хамар	-11.5481
▁дурдаж	-11.5481
рдан	-11.5481
▁тайзнаа	-11.5481
▁also	-11.5482
▁Галуут	-11.5482
▁5.6	-11.5485
▁About	-11.5488
▁овогтон	-11.5489
▁Кёнсан	-11.549
▁тохиолдл	-11.549
▁1867	-11.5492
▁өвчлөл	-11.5493
▁Фолксваген	-11.5494
▁Smith	-11.5494
▁бүтээгдэхүүнүүд	-11.5495
▁байдгий	-11.5496
▁бололцоо	-11.5496
▁эхлэж	-11.5497
бэл	-11.5498
▁Охин	-11.55
баг	-11.55
▁азербайжан	-11.55
▁7.5	-11.55
▁шугамын	-11.5501
▁Визант	-11.5505
▁Хатад	-11.5506
pr	-11.5508
пел	-11.5509
6,000	-11.551
эндүү	-11.5512
▁очин	-11.5514
21-30	-11.5515
▁эргүүл	-11.5515
▁Петербург	-11.5515
▁136	-11.5516
▁Эрхэмбаяр	-11.5517
alis	-11.5518
▁эрдэмт	-11.5519
▁дүүргүүд	-11.5519
▁1,1	-11.552
▁гаригийн	-11.5522
Тө	-11.5522
▁дэгдсэн	-11.5522
▁124	-11.5523
▁Индиа	-11.5524
▁босго	-11.5525
▁Батболд	-11.5526
▁тэргүүнд	-11.5526
▁хурдыг	-11.5527
ds	-11.5527
Хаанчлал	-11.5529
▁Vi	-11.5529
Эм	-11.553
хуучин	-11.5531
▁Фе	-11.5533
/-	-11.5533
хныг	-11.5536
▁Heart	-11.5537
▁бодлы	-11.5537
▁өргө	-11.5537
2015	-11.5538
▁бригадууд	-11.5541
▁Өсвөр	-11.5541
▁ухаа	-11.5542
2001	-11.5544
▁материалууд	-11.5545
tz	-11.5547
▁засл	-11.5547
▁бүтээлдээ	-11.5553
▁Хятаны	-11.5555
шинэ	-11.5559
▁дангаар	-11.556
▁Жалханз	-11.556
▁Рэпторс	-11.556
▁Флоренц	-11.556
▁замбараагүй	-11.556
▁харьцуулсан	-11.556
▁хавцал	-11.556
▁өнгөрдөг	-11.556
▁УЦС	-11.556
▁Commission	-11.556
▁нэхмэл	-11.556
▁Суарес	-11.556
▁тохиолдох	-11.556
nvalid	-11.556
▁Seoul	-11.556
hen	-11.5561
▁Шинжян	-11.5561
▁цацагдсан	-11.5562
▁хөгшин	-11.5562
▁алагдаж	-11.5562
▁хадгалсан	-11.5562
овордоогүй	-11.5562
▁Тээвэр	-11.5562
▁тушаасан	-11.5562
▁хуучнаар	-11.5564
▁Либерал	-11.5565
▁Маркус	-11.5566
III	-11.5568
▁Чадал	-11.5569
▁Фосфор	-11.5572
var	-11.5572
▁Саид	-11.5572
▁"...	-11.5572
▁145	-11.5573
▁орнуудыг	-11.5573
▁хангай	-11.5576
▁дасан	-11.5577
▁MP	-11.558
ago	-11.558
▁шахан	-11.5581
чич	-11.5582
▁уламжлан	-11.5584
▁тэмцээнүүдэ	-11.5586
▁Гү	-11.5586
▁тамирчдын	-11.5587
шсан	-11.5588
▁Гэрээний	-11.5588
▁Баасандорж	-11.5589
агдах	-11.5591
len	-11.5591
▁Мэри	-11.5592
оч	-11.5593
▁Бон	-11.5596
▁дэглэмтэй	-11.5603
ЭЛ	-11.5604
▁гишүүдийг	-11.5606
AS	-11.5608
▁bis	-11.5608
▁Кам	-11.561
▁Кур	-11.5611
October	-11.5611
▁Манжаас	-11.5614
баян	-11.5615
▁украин	-11.5615
▁Бизнесийн	-11.5615
▁дал	-11.5616
▁Хүлэгүгийн	-11.5616
▁1024	-11.5617
▁Хэв	-11.5619
▁ангилах	-11.5619
▁хэвлэх	-11.5623
}{	-11.5624
нэр	-11.5625
▁гэрээлж	-11.5625
▁шян	-11.5625
Ку	-11.5626
▁Салхи	-11.5626
▁спортоор	-11.5627
106	-11.5629
del	-11.5629
▁хөдлөл	-11.5629
▁Женев	-11.563
▁(21	-11.563
Ми	-11.5631
▁Умардын	-11.5632
Шар	-11.5632
▁Цус	-11.5633
ld	-11.5633
алга	-11.5633
bit	-11.5634
▁Дарьганга	-11.5634
▁His	-11.5635
▁Дол	-11.5637
▁ашиглалт	-11.5637
▁металлууд	-11.5638
▁Зо	-11.5638
▁Хад	-11.5639
▁Луй	-11.564
י	-11.5641
ç	-11.5641
▁Committee	-11.5641
▁Xyloto	-11.5641
▁Дашинчилэн	-11.5641
▁задгай	-11.5641
▁урсац	-11.5642
гир	-11.5642
▁Мөнххаан	-11.5642
▁үзлийн	-11.5643
▁Im	-11.5643
▁харъяалагддаг	-11.5643
▁хэрэгслээр	-11.5647
▁Эрдэнэбаатар	-11.5648
▁төгрөгөөр	-11.5648
▁Об	-11.5649
▁бригадын	-11.5649
▁нисч	-11.565
▁Зураач	-11.5651
▁манжууд	-11.5652
info	-11.5654
ls	-11.5654
▁Пин	-11.5656
▁Зар	-11.5658
▁оршуулгын	-11.5658
▁group	-11.566
гаж	-11.5661
▁Лан	-11.5661
▁Мур	-11.5662
arch	-11.5662
▁суга	-11.5662
ЗХ	-11.5663
▁судал	-11.5664
▁page	-11.5664
тнууд	-11.5665
▁Намнансүрэн	-11.5668
▁Site	-11.5668
▁Хүнань	-11.5668
▁үетэй	-11.5669
▁асуу	-11.5673
4000	-11.5674
▁хэрэгжүүлэхэд	-11.5674
▁цайзыг	-11.5674
▁Моторс	-11.5675
▁дуусах	-11.5676
▁болгохоор	-11.5677
▁чинээ	-11.5677
▁Лү	-11.5677
▁идэвхт	-11.5677
−1	-11.5678
▁урчууд	-11.5683
▁Чингийн	-11.5683
▁Баяд	-11.5684
▁Болдбаатар	-11.5684
▁1700	-11.5685
▁сахин	-11.5687
▁Сэнгэ	-11.5689
▁0.6	-11.5691
▁тогтоомж	-11.5691
▁Бра	-11.5692
▁Вон	-11.5692
sta	-11.5693
ерийн	-11.5693
▁уургууд	-11.5694
▁нуран	-11.5695
▁Сэтгүүл	-11.5696
▁дэр	-11.5696
аган	-11.5696
Үндэсний	-11.5696
нси	-11.5699
▁бодлогоо	-11.5704
light	-11.5707
▁хиргисийн	-11.5708
▁129	-11.5711
▁ажилла	-11.5713
▁шувтарга	-11.5714
2002	-11.5715
▁Вэнь	-11.5715
▁Иохан	-11.5715
▁өгөхөө	-11.5717
cus	-11.5718
▁ёслолд	-11.5719
+4	-11.572
▁(1990)	-11.572
)1	-11.5721
▁Ста	-11.5721
▁толбо	-11.5723
өхөрсөг	-11.5723
▁идэш	-11.5723
▁NASA	-11.5723
▁Organization	-11.5723
▁Бриджстоун	-11.5723
▁Харьцангуй	-11.5723
▁Сантьяго	-11.5723
▁Дэлгэрхаан	-11.5724
▁мэдэгдэв	-11.5724
▁тархаж	-11.5724
▁(+7)	-11.5724
▁зүтгэсэн	-11.5724
▁дүүргэсэн	-11.5724
▁ярилцдаг	-11.5725
▁тэмцэлдэж	-11.5725
▁мэдээлсэн	-11.5725
▁зүүж	-11.5726
▁хэрэглэгдэнэ	-11.5726
▁Yang	-11.5726
▁эзлэгдэж	-11.5726
▁далбаанууд	-11.5726
▁байгаагийн	-11.5728
▁дуулиан	-11.5729
ele	-11.573
▁унага	-11.5731
▁нийтлэгдсэн	-11.5733
▁2009-10	-11.5733
▁дов	-11.5733
▁сонс	-11.5734
▁Цэрэнчимэд	-11.5734
▁Ойрх	-11.5734
▁алдарш	-11.5735
▁Мир	-11.5736
▁хүндрэлтэй	-11.5737
шийн	-11.5737
адаг	-11.5738
▁Камп	-11.5738
▁Secret	-11.5738
эш	-11.5738
▁нэрний	-11.5739
Ман	-11.5741
▁зарчмууд	-11.5742
▁хорьж	-11.5743
Одоо	-11.5743
▁Бирмингем	-11.5745
▁Хокс	-11.5749
▁1885	-11.575
▁дүрвэн	-11.5751
▁Моторын	-11.5752
▁end	-11.5756
ations	-11.5756
▁буусан	-11.5757
▁Land	-11.5757
▁Hyun	-11.5759
▁Tom	-11.576
▁отрядын	-11.5762
абад	-11.5764
ator	-11.5765
Тэ	-11.5765
▁176	-11.5767
ско	-11.5767
япон	-11.5767
тойгоо	-11.5771
▁сон	-11.5771
▁Шарлотт	-11.5772
▁гарлаа	-11.5775
▁биетийн	-11.5775
ε	-11.5776
~	-11.5777
Отто	-11.5777
Ганбаатар	-11.5778
well	-11.5778
▁978-	-11.5779
▁багаар	-11.5782
лэр	-11.5785
▁тань	-11.5785
уйн	-11.5789
▁Филипп	-11.5789
рсан	-11.5789
▁түрээс	-11.5791
▁оролд	-11.5791
▁Драм	-11.5795
▁хүнээ	-11.5797
▁иргэдээс	-11.5797
▁байгуулагдан	-11.5797
амайг	-11.58
▁таслал	-11.58
▁лого	-11.58
▁ордууд	-11.58
-2006	-11.5803
ensis	-11.5804
▁Stephen	-11.5806
▁Тер	-11.5806
▁хомс	-11.5806
▁1640	-11.5806
▁Error	-11.5806
▁Гомеш	-11.5806
▁хонгирад	-11.5806
▁цохигдон	-11.5806
▁Гадаргын	-11.5806
▁Сурвалж	-11.5806
▁нийлээд	-11.5806
▁Andrew	-11.5806
жанцан	-11.5806
▁Памир	-11.5807
▁ниссэн	-11.5807
▁бутарч	-11.5807
▁залгасан	-11.5807
▁Дондог	-11.5808
▁хүчиллэг	-11.5809
▁list	-11.581
бел	-11.581
урт	-11.581
▁Прусс	-11.581
▁харайлт	-11.5811
▁прокурор	-11.5812
▁хязгааргүй	-11.5812
▁Fr	-11.5815
312–	-11.5815
▁Антон	-11.5815
▁1830	-11.5816
▁Үнэ	-11.5817
133	-11.5817
▁эвслийн	-11.5818
▁олноо	-11.5818
▁ла	-11.5819
▁Бахрейн	-11.5819
▁Краснодар	-11.5819
фф	-11.5819
SE	-11.5821
▁2002,	-11.5822
▁Санал	-11.5826
▁партизан	-11.5831
▁Ск	-11.5831
▁Ухаа	-11.5832
бэй	-11.5833
▁Golden	-11.5833
▁Тайчууд	-11.5835
▁Отгонбаатар	-11.5835
▁засгаа	-11.5837
▁завь	-11.5837
▁1639	-11.5837
ato	-11.5838
101	-11.584
▁цул	-11.5841
▁эрчүүд	-11.5844
▁чадваргүй	-11.5844
▁Viva	-11.5844
унг	-11.5846
▁Ферган	-11.5848
▁бичсэнээр	-11.585
aj	-11.5853
▁хороотой	-11.5854
грам	-11.5854
▁дугуйны	-11.5855
▁Белл	-11.5857
Даваа	-11.5858
▁дадлага	-11.586
▁хэлтний	-11.586
чиж	-11.586
dd	-11.586
▁148	-11.586
ks	-11.5861
Даш	-11.5862
▁can	-11.5863
▁энергийг	-11.5863
Лхагвасүрэн	-11.5863
▁залах	-11.5867
shi	-11.587
▁Pan	-11.5874
▁цилиндр	-11.5877
▁хожигдол	-11.5878
▁(2015	-11.5879
▁Орши	-11.5881
▁охинтой	-11.5885
▁Аман	-11.5887
▁Milan	-11.5888
▁Health	-11.5889
▁download	-11.5889
▁Копенгаген	-11.5889
▁анализ	-11.5889
▁эрдмийн	-11.5889
▁Blood	-11.5889
▁догшин	-11.5889
▁Бареа	-11.5889
▁Daniel	-11.5889
▁Ош	-11.589
▁үргэлжлүүлэх	-11.589
▁механикжуулсан	-11.589
▁элэгдэл	-11.589
▁Seung	-11.589
▁амьдарна	-11.589
▁Nobel	-11.589
▁байдгаараа	-11.589
▁Каролина	-11.5891
▁оруулаад	-11.5891
▁захирдаг	-11.5891
▁России	-11.5892
1000	-11.5892
▁Цэдэнбал	-11.5893
▁−5.	-11.5893
▁тойрч	-11.5893
▁Роберто	-11.5894
▁очдог	-11.5894
▁авиаг	-11.5894
▁түмнүүд	-11.5894
▁байрлалыг	-11.5895
▁Toyota	-11.5897
▁li	-11.5898
▁дэм	-11.5903
▁нэгэнд	-11.5903
логч	-11.5904
▁₮	-11.5905
▁Аюуш	-11.5905
кай	-11.5905
▁нөлөөний	-11.5906
ако	-11.5907
▁Москваг	-11.5907
▁Шинь	-11.5908
▁адал	-11.5908
use	-11.5909
00,000	-11.591
ria	-11.5911
▁Цорос	-11.5912
▁Ойн	-11.5912
▁Тони	-11.5913
аран	-11.5913
енс	-11.5914
▁хямралын	-11.5916
▁Өдөр	-11.5917
кович	-11.592
▁орноор	-11.5924
▁салангид	-11.5924
▁Хада	-11.5927
rud	-11.5927
▁Зан	-11.5928
она	-11.5929
▁дарагд	-11.593
▁Галсан	-11.5931
▁бөөнөөр	-11.5931
▁тосгоны	-11.5933
▁Орхоны	-11.5933
▁3-4	-11.5936
▁цэцэглэн	-11.5937
▁фин	-11.5938
▁хуралдуулж	-11.5938
вогийн	-11.5939
▁хэвлий	-11.594
▁Монголоор	-11.5941
анга	-11.5944
▁өнгөрч	-11.5945
Нутаг	-11.5946
$	-11.5946
▁сийлбэр	-11.5946
▁Сахар	-11.5947
▁0.1	-11.5948
▁Одон	-11.5949
рүүлсэн	-11.5949
▁буудалд	-11.5952
▁нэгжид	-11.5952
Дүн	-11.5953
▁Агуу	-11.5953
▁шаард	-11.5955
▁УСК	-11.5955
▁Цэнгэлдэх	-11.5956
▁эмчийн	-11.5957
▁хөрөнгөөр	-11.5958
▁ажиглагч	-11.5961
▁сегмент	-11.5961
▁193	-11.5963
▁Нямдорж	-11.5965
члэл	-11.5965
▁замтай	-11.5969
кат	-11.597
▁тахин	-11.5972
▁Рад	-11.5973
▁Екатеринбург	-11.5973
▁Лихтенштейн	-11.5973
▁Никарагуа	-11.5973
▁класс	-11.5973
▁магнитуд	-11.5973
▁хэрэгслийг	-11.5973
▁Ургамлы	-11.5973
▁Федор	-11.5973
▁январ	-11.5974
▁үлдээх	-11.5974
▁урьж	-11.5974
▁айдас	-11.5974
ST	-11.5974
▁бетон	-11.5974
▁боссон	-11.5975
[...]
